#version: 0.2
i n
r e
a n
t i
e r
e n
o n
in g</w>
a r
s t
o r
l i
e r</w>
a t
e s</w>
o u
e d</w>
a l
o n</w>
s i
a c
o m
e s
d i
r i
a l</w>
r o
t h
c h
l e</w>
e l
e c
a s
o o
m a
r a
l e
u s
ti on</w>
i c
o p
l o
d e
l d</w>
u r
l y</w>
a m
t s</w>
v e</w>
k e</w>
l a
e t</w>
c e</w>
u n
i s
a p
a n</w>
en t</w>
p e
i t
c om
es t</w>
p ro
p o
e x
on e</w>
c on
t r
m e
v i
a g
q u
v er
s h
o l
s u
f e
ou ld</w>
n e
a d
w or
a y</w>
m o
at e</w>
i r
p er
ti on
i l
er s</w>
s e
e n</w>
t a
c i
g h
ou n
g et</w>
a r</w>
n o
b est</w>
i n</w>
u c
a b
p re
w ould</w>
s e</w>
re n
m an
e t
s p
pe op
peop le</w>
in di
t er
t e
s t</w>
a tion</w>
oo d</w>
t o
i m
c o
u l
li ke</w>
t y</w>
p h
t er</w>
d s</w>
t h</w>
u m
w e
e m
al ly</w>
f f
an t</w>
p l
an g
com p
d e</w>
a d</w>
f i
g i
e v
t ing</w>
m ar
t u
k ing</w>
g o
th in
h e
es s</w>
e l</w>
tion s</w>
f or
b i
b o
ag e</w>
j o
gh t</w>
s o
c a
u d
m i
t e</w>
re d</w>
g ood</w>
in e</w>
ur e</w>
a y
h i
p ar
om e
u s</w>
k s</w>
g ra
ti m
en g
a i
b le</w>
ti c
s ome
b e
t ed</w>
y e
p or
c oun
f in
an s</w>
indi a</w>
a li
a t</w>
k no
w i
ap p
f fe
m ent</w>
en ce</w>
en d</w>
g e</w>
f e</w>
g s</w>
m on
d u
d o
us e</w>
c h</w>
s ti
b u
ti ve</w>
f ri
st r
ffe ren
s c
di fferen
on g</w>
en ts</w>
ma ke</w>
g u
man y</w>
st ud
th ing</w>
w ay</w>
a v
t ra
t ri
b oo
f u
ac k</w>
om e</w>
ec t</w>
thin k</w>
h o
c l
st ar
n i
tim e</w>
ay s</w>
at ed</w>
s y
s er
c ol
m in
f ac
p a
g re
d ing</w>
th ou
an ce</w>
an d</w>
ou r
per s
m s</w>
d er</w>
st e
it y</w>
ar d</w>
c re
d er
un i
m uc
muc h</w>
p u
s si
li fe</w>
a u
en t
some one</w>
b l
l s</w>
el l</w>
re c
ar s</w>
wor k</w>
ar y</w>
al l</w>
sh i
v el
ar e</w>
ma n</w>
b ec
n a
am er
p s</w>
es s
d uc
com m
ab le</w>
ou s</w>
in ter
m at
i es</w>
an d
r u
kno w</w>
ch oo
d ay</w>
a m</w>
le ar
k e
g h</w>
lo g
g ir
ev er</w>
amer ic
or e</w>
as t</w>
in e
ic e</w>
p la
t w
w om
ta ke</w>
w ant</w>
g en
c e
or y</w>
p r
i c</w>
am e</w>
si on</w>
ac h
di s
g r
y ing</w>
u e</w>
w s</w>
w h
p ri
an y
ti es</w>
as e</w>
st o
an s
tr y</w>
b et
al s</w>
wor ld</w>
oun d</w>
fin d</w>
c u
v er</w>
g o</w>
i st
f ir
qu or
ac e</w>
it e</w>
s a
n ing</w>
th er</w>
on s</w>
bec ome</w>
i d</w>
me di
t ure</w>
pers on</w>
c an
f re
thou t</w>
us ed</w>
wi thout</w>
e ver
h u
po ssi
um p</w>
c ould</w>
ic al</w>
ye ar</w>
fe el</w>
y p
s s</w>
la r</w>
eng ine
bet ter</w>
v e
boo k</w>
con t
tion al</w>
quor a</w>
o r</w>
s in
w ri
si g
ch ang
at ing</w>
c es</w>
so ci
as s</w>
s h</w>
l oo
or s</w>
uni ver
per i
el ec
l ine</w>
li c
ne w</w>
a s</w>
fu l</w>
s ec
c ri
comp an
ti c</w>
possi ble</w>
t ur
h el
s choo
m us
w er</w>
w at
l l</w>
v ing</w>
tr ump</w>
at h
c r
ch in
en ti
sh o
w ays</w>
shi p</w>
col le
b er</w>
c ur
ch ar
jo b</w>
b r
a si
t re
h app
s ci
g e
por t
fri end</w>
er ing</w>
ye ars</w>
f ic
b us
e y</w>
j e
is t</w>
n or
al l
indi an</w>
me an</w>
u p
re s</w>
d re
c or
wom en</w>
o re
star t</w>
at es</w>
o ff
ec i
qu es
ne ed</w>
e ar
ad v
c al</w>
o b
fir st</w>
ser v
in t
i t</w>
lo w</w>
t t
u m</w>
h ar
su p
in ess</w>
ap pe
f t</w>
en d
ac t</w>
as s
an t
i l</w>
el y</w>
differen ce</w>
mon ey</w>
d y</w>
de vel
f l
sti ll</w>
po li
schoo l</w>
il l
k ed</w>
i g
e p</w>
s k
re la
em ent</w>
com e</w>
differen t</w>
con si
o ld</w>
e ff
coun try</w>
h in
s s
es e</w>
vi e
l ong</w>
s ur
univer si
re ally</w>
log y</w>
b an
d es
g a
f un
m is
v es</w>
lear n</w>
st s</w>
k es</w>
m al
b er
bus iness</w>
f a
lo ve</w>
s ol
c our
c k</w>
ai r</w>
m u
ex am
ev en</w>
us ing</w>
me n</w>
ar i
colle ge</w>
c ul
thin gs</w>
y si
s pe
t es</w>
v el</w>
gi ve</w>
p i
t yp
en s</w>
r y</w>
g er
c ar
in v
w n</w>
tic s</w>
pro gra
at t
to r</w>
engine ering</w>
chang e</w>
si d
r an
g le</w>
hel p</w>
g et
si te</w>
b ack</w>
in gs</w>
su b
on line</w>
b ri
z e</w>
b s</w>
n um
in te
th e
pro duc
s ay</w>
se e</w>
mar k
st er</w>
p le</w>
te ch
ang u
ex p
ph one</w>
b re
a ff
ex peri
f am
p t</w>
devel op
b ad</w>
i li
ch an
un der
b le
p ur
d el
a k
d ed</w>
ch e
ma de</w>
s el
universi ty</w>
ri ght</w>
lo w
compan y</w>
v al
ag es</w>
ever y
li sh</w>
cur ren
l angu
g g
qu i
pu b
mus li
is h</w>
ic s</w>
an ts</w>
v ed</w>
se x</w>
ali ty</w>
k in
hi gh</w>
im port
o c
mo vi
s en
re st
sto p</w>
any one</w>
gir l</w>
is m</w>
li ve</w>
i ld</w>
get ting</w>
le g
st ory</w>
w ar
d on
tic al</w>
ac k
n ame</w>
to p</w>
c er
c s</w>
c y</w>
s al
b e</w>
l in
d at
stud ent</w>
comp u
bo dy</w>
s m
bu y</w>
go ver
l es</w>
in s</w>
we b
sci ence</w>
gen er
h y
tw o</w>
v o
pre par
i a</w>
st ate</w>
tri es</w>
c ess</w>
stud y</w>
go ing</w>
ec ts</w>
il l</w>
i de
ac coun
re as
l ess</w>
h appe
happe n</w>
a tions</w>
l ing</w>
t al
ph ysi
por t</w>
h ou
ch o
m m
be li
e u
t ly</w>
gover n
n er</w>
me m
wh ite</w>
si de</w>
coun tries</w>
st ra
pl ace</w>
ste m</w>
en ds</w>
re al</w>
chin a</w>
b ro
some thing</w>
em p
re li
loo k</w>
fre e</w>
y s</w>
l and</w>
re sp
i al</w>
e ve</w>
for m</w>
ac h</w>
g er</w>
eng lish</w>
in t</w>
c lo
he al
b ra
wat er</w>
at s</w>
us es</w>
bl ack</w>
or t</w>
p op
i d
t ec
americ an</w>
sy stem</w>
rela tion
b en
pa ren
s es</w>
tr ue</w>
boo ks</w>
pro ble
ap p</w>
experi ence</w>
it ed</w>
on om
comp le
r on
ques tions</w>
n at
cl ass</w>
is e</w>
pl an
tr ans
an o
w ar</w>
p er</w>
o ver
m e</w>
i ght</w>
g ro
num ber</w>
govern ment</w>
c ap
a k</w>
import ant</w>
stud ents</w>
ca re
ath er</w>
a ir
d r
su c
f ol
pl ac
langu age</w>
ex t</w>
ch ri
s ing</w>
b a
f ul
c al
d ri
vie w</w>
de sig
b a</w>
d ec
m ents</w>
b or
compu ter</w>
t ell</w>
n ed</w>
li c</w>
j ect</w>
r us
at h</w>
in ing</w>
g oo
ou t
re ad
c ed</w>
su l
pl es</w>
s ed</w>
hu man</w>
ke ep</w>
so f
soci al</w>
eu ro
as ed</w>
ta in</w>
n on</w>
d ra
s ou
ne ver</w>
in i
on al</w>
gir ls</w>
g y</w>
ti v
gh ts</w>
se ar
w a
al ways</w>
n ec
sti tu
man ag
wor king</w>
ever y</w>
ai d</w>
o s</w>
p e</w>
i ly</w>
an im
c el
vi de
mal e</w>
s on</w>
h i</w>
p ing</w>
ac tu
ec onom
pre sid
char ac
v en</w>
po si
m al</w>
h ome</w>
fri ends</w>
sp eci
ch il
sof tw
str uc
care er</w>
in st
dat a</w>
st er
f ore
h a
c en
b lo
p sy
d ays</w>
na tional</w>
chin ese</w>
relation ship</w>
t ors</w>
gra du
inter n
st a
mo ve</w>
at e
americ a</w>
st ri
d one</w>
t ers</w>
te m
gra ph
mar ri
w ing</w>
ar m
k i
wri te</w>
rus si
ar t</w>
pop u
or der</w>
softw are</w>
go t</w>
d i</w>
d ate</w>
cont ro
g es</w>
li ght</w>
t est</w>
fu ture</w>
str y</w>
or i
ad a</w>
s c</w>
as h
pro f
reli gi
ch em
paren ts</w>
am es</w>
as k</w>
ben e
m il
ir e</w>
tr ac
m ul
ex am</w>
u al</w>
lear ning</w>
pro ve</w>
je e</w>
in cre
de red</w>
m or
s ex
c a</w>
accoun t</w>
cour se</w>
th er
st ing</w>
fam ily</w>
la tion</w>
w in
f ood</w>
on d</w>
w n
de gre
web site</w>
po wer</w>
a ma
st re
c ar</w>
c ra
gu y</w>
kin d</w>
an i
si ve</w>
ul t</w>
re ad</w>
lo t</w>
w r
w ell</w>
re qui
ano ther</w>
k ist
tech no
c ess
t o</w>
s m</w>
k en</w>
comm un
leg al</w>
do c
us a</w>
bi o
st ates</w>
p le
sear ch</w>
mu si
r ac
ar ound</w>
we e
pa kist
f av
li ber
beli eve</w>
vi si
goo gle</w>
m en
f il
v is
p ic
al s
tim es</w>
ph o
or g
s our
happ ens</w>
se e
hi gh
in ste
f er</w>
n ess</w>
wr ong</w>
bi g</w>
e duc
wor d</w>
le t</w>
t om
c le
d d
fl u
l y
compan ies</w>
fac e</w>
to day</w>
on es</w>
typ e</w>
h ard</w>
d ro
st and</w>
et y</w>
sho w</w>
ic es</w>
ma jo
americ ans</w>
ma kes</w>
wom an</w>
movi e</w>
majo r</w>
hi story</w>
di c
als o</w>
di ff
j ap
h ate</w>
l ast</w>
emp lo
go d</w>
can ada</w>
progra mm
p ay</w>
ques tion</w>
b ab
ma in</w>
c all
nor mal</w>
ist s</w>
st u
it al</w>
t el
a re
v ol
th s</w>
musli ms</w>
ch ild</w>
kno wn</w>
t op
u tion</w>
ran k</w>
gr ou
n ar
de mo
c is
co st</w>
presid ent</w>
ec tive</w>
cre ate</w>
li ving</w>
ac ce
et ing</w>
mi t</w>
pla y</w>
chil dre
hu man
childre n</w>
ic i
fac e
in ve
degre e</w>
ci vi
fi el
ou gh</w>
g n
m p
hou se</w>
g ar
ro o
c ity</w>
in f
consi dered</w>
t en</w>
pu t</w>
ver age</w>
par t</w>
d ge</w>
pro vi
l ed</w>
w al
w in</w>
th ers</w>
c k
e qu
ma tion</w>
ear th</w>
medi a</w>
la w</w>
k ore
face book</w>
as h</w>
t v</w>
l ar
ent al</w>
p un
tec h</w>
sin ce</w>
h er
mar ks</w>
i s</w>
in du
mark et</w>
comm on</w>
chri sti
inste ad</w>
fun c
c are</w>
adv ant
bene fi
p en
gre at</w>
po se</w>
y ou
exam ples</w>
l on
s ent</w>
ta tion</w>
o d</w>
elec tri
e i
pub lic</w>
ans wer</w>
prepar e</w>
c oo
f oo
wri ting</w>
s le
fe el
pro cess</w>
actu ally</w>
ou r</w>
gi ven</w>
un ited</w>
el li
any thing</w>
as si
te ach
ti fic
an ci
e at</w>
ma king</w>
s et</w>
v en
g ame</w>
pre ss
c la
me an
re st</w>
i it</w>
b ar
li t
jo bs</w>
techno logy</w>
choo se</w>
re l
con ver
c am
mis sion</w>
po int</w>
medi cal</w>
si s</w>
musi c</w>
pr ac
c all</w>
n ext</w>
a verage</w>
en ed</w>
ta ble</w>
l er</w>
s w
b all</w>
st or
th re
d eci
an al
z ed</w>
inte rest
em s</w>
pla y
p ed</w>
p ap
curren t</w>
b it
b ang
ca use</w>
j u
l at
sc ore</w>
c ou
mat h</w>
p at
indi ans</w>
f y</w>
sel f</w>
sm all</w>
a fri
w ers</w>
vide o</w>
jo in</w>
su e</w>
en er
t or
de al</w>
serv ice</w>
app ly</w>
nor th</w>
c ent
t ro
ec ted</w>
b al
aff ect</w>
op e</w>
wor th</w>
p ay
il ls</w>
gg est</w>
di rec
u k</w>
d es</w>
ban k</w>
b ur
a red</w>
t en
reas on</w>
li sh
me chan
sp ace</w>
b asi
prof es
sp i
d ar
ap pro
b ir
i m</w>
sup port</w>
ca uses</w>
tur n</w>
si tes</w>
t al</w>
le ft</w>
t oo
in for
x i
fiel d</w>
e y
do wn
call ed</w>
n a</w>
f ra
al d</w>
ac y</w>
pre ssi
ti ps</w>
c y
d om
t a</w>
c ard</w>
sou th</w>
r om
we ight</w>
e st
b ers</w>
mo der
pakist an</w>
b ased</w>
in stitu
ful l</w>
is h
ne e
par t
tr u
op en</w>
mon ths</w>
et c</w>
ne t
ent ly</w>
del hi</w>
musli m</w>
engine er</w>
ener gy</w>
suc cess
o f
n s</w>
lo ad</w>
im p
bu il
au stra
ba i</w>
austra li
val ue</w>
cl u
ti ce</w>
li ty</w>
o thers</w>
ta king</w>
bi le</w>
k er</w>
tra vel</w>
desig n</w>
po t
du ce</w>
a way</w>
m ic
manag ement</w>
di st
ili ty</w>
physi cs</w>
m er
le vel</w>
mark eting</w>
le a
fore ig
sa fe</w>
tu be</w>
ti z
h air</w>
develop ment</w>
re search</w>
bo y
don ald</w>
des cri
sec u
p oo
s mar
contro l</w>
im prove</w>
mean ing</w>
ro id</w>
ra m</w>
ac tion</w>
t ou
l u
ter m</w>
b at
proble m</w>
in es</w>
h ol
an ds</w>
e x</w>
cul ture</w>
a tive</w>
av ai
e asi
la p
ur al</w>
f ound</w>
di es</w>
ide a</w>
at or</w>
ou s
progra m</w>
educ ation</w>
de n</w>
cor rec
sin gle</w>
heal th</w>
we ar</w>
m ach
i p
ser ies</w>
de p
de f
gener al</w>
y oun
ma il</w>
m ess
war ds</w>
il s</w>
r e</w>
b ack
or ig
i ma
p ass
for m
sc ri
off ic
re gi
a in</w>
under stand</w>
la ble</w>
s on
popu lar</w>
fi c</w>
enti al</w>
b ul
op ini
low ed</w>
inter national</w>
mi lit
st ay</w>
me th
poli tical</w>
tal k</w>
fav or
en ough</w>
our s</w>
g in
cont in
read y</w>
re ali
and roid</w>
requi red</w>
for ce</w>
vi r
m ba</w>
bu ild</w>
gir l
th y</w>
do g</w>
elec tr
k ill
tt le</w>
at ure</w>
movi es</w>
mon th</w>
in flu
pri v
incre ase</w>
h om
le ad
z ation</w>
do m</w>
every one</w>
i ts</w>
an a</w>
bo ard</w>
e p
min d</w>
d ers</w>
int elli
is ra
ti sh</w>
c le</w>
grou p</w>
resp on
d en
avai lable</w>
you tube</w>
hin d</w>
a w
programm ing</w>
at trac
ni ght</w>
proble ms</w>
inve st
ch ing</w>
st y
sci enti
po st</w>
fi le</w>
f f</w>
human s</w>
t on</w>
favor ite</w>
e vi
boy friend</w>
en cy</w>
fi ed</w>
be hind</w>
intelli g
tic ally</w>
ca t</w>
psy cho
sal ary</w>
c ro
as y</w>
happ ened</w>
pers on
mo bile</w>
ti ves</w>
h al
f er
re sul
b el
thou gh</w>
de ath</w>
e li
j ects</w>
e th
h and
diff ic
f la
milit ary</w>
ama z
s aid</w>
st ro
girl friend</w>
of ten</w>
pr in
ke y</w>
sh ort</w>
c o</w>
app lic
hin d
us t</w>
ma st
ci tiz
benefi ts</w>
c li
or d</w>
ru n</w>
ti ci
soci ety</w>
fe male</w>
pressi on</w>
in ed</w>
al ore</w>
rel ated</w>
advant ages</w>
civi l</w>
st om
h on
di e</w>
st an
russi a</w>
pro per
du e</w>
gradu ate</w>
success ful</w>
loo king</w>
li st</w>
k ill</w>
w he
b and</w>
pr om
ex pla
lo c
tu res</w>
st e</w>
c op
wat ch</w>
c at
h ur
pre gn
el se</w>
wi th
re co
typ es</w>
re comm
lea ve</w>
ch es</w>
log ical</w>
em ents</w>
e ful</w>
ar ing</w>
euro pe
euro pe</w>
ch ec
h or
st ed</w>
wor ds</w>
par ty</w>
su per
pur pose</w>
religi on</w>
ger many</w>
si ons</w>
e mo
vis a</w>
mo ther</w>
w an
tr an
we b</w>
m ass</w>
t an
t ting</w>
infor mation</w>
ro le</w>
dr in
us h</w>
m ental</w>
d a</w>
w le
ti s
nar cis
s ell</w>
ki ds</w>
st at
de v
lo se</w>
c ir
si mi
g l
tu al</w>
ster n</w>
im um</w>
sti c</w>
spe ed</w>
pho to
consi der</w>
ad mission</w>
narcis si
pre ss</w>
im mi
ans wers</w>
oun t</w>
de ter
m a</w>
kno wle
p ast</w>
ach ing</w>
star ting</w>
r ate</w>
en ces</w>
g lo
bri tish</w>
app li
intern et</w>
sk ills</w>
demo cr
o id</w>
sin g
rec ei
ch i
tra ining</w>
ho le</w>
d y
simi lar</w>
o k
di t</w>
se en</w>
produc t</w>
di g
h s</w>
colle ges</w>
ro ad</w>
gu ys</w>
vel y</w>
mechan ical</w>
indu stry</w>
ta x</w>
f o
every thing</w>
g ay</w>
c er</w>
stud ying</w>
pa in</w>
sc re
en ing</w>
he ad</w>
n ers</w>
co de</w>
c ase</w>
vie ws</w>
graph y</w>
moder n</w>
am a</w>
a p</w>
pre sent</w>
kore a</w>
fi ght</w>
str ate
op er
as es</w>
opini on</w>
g ames</w>
sh are</w>
h ab
s po
ri ty</w>
ex ist</w>
pers onal</w>
adv ice</w>
profes si
com pe
ear n</w>
serv ices</w>
bec om
sec ond</w>
ec e</w>
p al
ti n</w>
m um
w ard</w>
pap er</w>
t am
mat er
s un
n u
n am
h us
ac ks</w>
op h
eff ective</w>
al lowed</w>
ne u
bl ood</w>
qu ality</w>
australi a</w>
roo m</w>
n y</w>
fam ous</w>
mach ine</w>
v s</w>
st ar</w>
correc t</w>
applic ation</w>
inter view</w>
j av
mic ro
ne ga
poli ce</w>
are a</w>
marri ed</w>
pro ject</w>
w ish</w>
de l</w>
sty le</w>
pre v
ri d</w>
d ai
co m</w>
sex ual</w>
r ather</w>
marri age</w>
gu n</w>
g ate</w>
ter ms</w>
p an
foreig n</w>
or ity</w>
au tom
bang alore</w>
knowle dge</w>
cour ses</w>
happ y</w>
comm er
dd le</w>
priv ate</w>
m y
la m</w>
f ast</w>
mul ti
e asy</w>
bra in</w>
shi ps</w>
func tion</w>
mat he
ac hi
an ese</w>
br an
nec ess
v in
peri od</w>
re le
sk in</w>
diffic ult</w>
ous ly</w>
au ti
am s</w>
wor k
mum bai</w>
al ready</w>
wi fe</w>
tt en</w>
or d
u ally</w>
eff ect</w>
mathe ma
con ce
tr ying</w>
star tu
ou t</w>
wor ks</w>
c se</w>
con serv
ar ch
ag ram</w>
am ount</w>
qu ali
m b
expla in</w>
end ed</w>
liber als</w>
comp ared</w>
cal cul
tre at</w>
plac es</w>
gh ter</w>
b i</w>
d h
pri ce</w>
acce p
dai ly</w>
com ing</w>
po w
w ood</w>
fol low</w>
pla n</w>
r un
t ely</w>
wor st</w>
a de
at he
ne et</w>
fin anci
qu e</w>
su m
mi ddle</w>
te am</w>
con nec
s ays</w>
ra tion</w>
h ours</w>
s ong</w>
il li
w ants</w>
f ather</w>
n uc
amaz on</w>
b ed</w>
e g
tra vel
j a
ne ws</w>
univer se</w>
jap anese</w>
as ked</w>
ra di
po sed</w>
u g
con di
st and
nat ural</w>
v ari
to wards</w>
us eful</w>
cam p
produc ts</w>
el s</w>
b al</w>
ag re
bi ggest</w>
co in</w>
s la
ir d</w>
gr ound</w>
con f
u res</w>
prev ent</w>
ic ally</w>
o p</w>
exam ple</w>
emplo y
fa il
t ter</w>
ab ad</w>
c ks</w>
en ced</w>
l a</w>
sle ep</w>
cen tr
ca tions</w>
i phone</w>
see m</w>
mo ving</w>
y et</w>
visi t</w>
cer tific
youn g</w>
ta ken</w>
in g
a i</w>
d ru
fi t</w>
li k
the ory</w>
an ti
institu te</w>
sto ck</w>
sour ces</w>
secu rity</w>
ma y</w>
sur vi
ide as</w>
ass es</w>
mo del</w>
be ha
star ted</w>
bi t</w>
f li
thre e</w>
op port
lo gi
s ure</w>
ad s</w>
isra el</w>
cu t</w>
ra n</w>
j us
consi der
co aching</w>
b ud
nuc le
m om
lo st</w>
thin king</w>
tre at
off er</w>
si ze</w>
is lam</w>
descri be</w>
fol low
i gh
ai l</w>
ab ility</w>
mo di</w>
p aid</w>
posi tion</w>
sig ni
o il</w>
inv est</w>
d ence</w>
necess ary</w>
k ar
char ge</w>
tr a</w>
ac c
si a</w>
eff ects</w>
anim als</w>
f ar</w>
s qu
ri s
h un
down load</w>
sour ce</w>
mem ber</w>
s co
bor n</w>
m it
g ed</w>
f all</w>
charac ter
wee k</w>
li ter
ang e</w>
m ine</w>
ag o</w>
jap an</w>
chem ical</w>
p tion</w>
a king</w>
t ex
man u
r a</w>
de fin
sec re
en se</w>
is tics</w>
ok ay</w>
s ch
differen ces</w>
bo y</w>
av oid</w>
pub lic
s am
commun ic
par tic
mat ter</w>
op tion</w>
inst agram</w>
ter r
pro ce
ne y</w>
g en</w>
sp ec
fe ren
p a</w>
i stry</w>
dre ss</w>
gre at
lik ely</w>
ne w
re qu
h and</w>
gro w</w>
r s</w>
nega tive</w>
charac ter</w>
ant i</w>
ar ds</w>
ti vely</w>
lo wer</w>
e m</w>
o logy</w>
is su
li ttle</w>
si m
na tive</w>
win do
e ating</w>
ac ade
sol ution</w>
s ound</w>
exp ect</w>
dep end
lo r</w>
ge ts</w>
professi onal</w>
orig in
bre ak</w>
emplo ye
th ro
devel op</w>
anal y
je ws</w>
ic k
d ating</w>
l an
ch ance</w>
re gar
si tu
bi lity</w>
ur b
d a
provi de</w>
p p
struc ture</w>
ci es</w>
mil li
le ast</w>
fac ts</w>
min ist
su ff
mus t</w>
g as</w>
signi fic
exam s</w>
reas ons</w>
ar ab
ga in</w>
au th
ou d</w>
lap top</w>
en vi
sol ve</w>
sp or
to ge
terr or
dre am</w>
lar ge</w>
id enti
a di
cr yp
read ing</w>
de pression</w>
ad d</w>
al e</w>
pu r</w>
ali sm</w>
toge ther</w>
re move</w>
qu o
s mo
in ation</w>
e d
c ing</w>
sh oo
en sive</w>
per f
im s</w>
schoo ls</w>
org an
elec tion</w>
arm y</w>
feel ing</w>
chan ces</w>
ca li
to ld</w>
s end</w>
acce pt</w>
cu stom
app s</w>
medi c
with in</w>
ma ins</w>
chem istry</w>
afri c
com es</w>
p as
con st
d ang
ay ing</w>
sc ope</w>
ser ve</w>
sw it
v ic
interest ed</w>
al low</w>
spe ak</w>
wh at
off ice</w>
ex ist
l ec
hus band</w>
manu fac
pre fer</w>
europe an</w>
p ra
inte rest</w>
ac comp
uni ties</w>
o k</w>
me as
si l
poo r</w>
y a</w>
ob ama</w>
tri bu
adv an
tiv ity</w>
r ou
per cent
invest ment</w>
fa ke</w>
we stern</w>
prepar ation</w>
foo t
uc k</w>
becom ing</w>
heal thy</w>
ev ol
st ore</w>
gen der</w>
f ren
re p
or ies</w>
ch all
dri ve</w>
ph d</w>
e di
g am
envi ron
dig ital</w>
interest ing</w>
c b
clo se</w>
org ani
financi al</w>
sh a
en jo
no thing</w>
ma in
inv ol
gra de</w>
chall eng
mo tiv
at ely</w>
ur y</w>
in come</w>
s we
r ing</w>
popu lation</w>
cl ud
w est</w>
pl at
sen se</w>
ful ly</w>
thou ghts</w>
in spi
ri ch</w>
sy n
re pre
op tions</w>
d ol
basi c</w>
f r
sp ort</w>
l am
il legal</w>
percent age</w>
s n
nucle ar</w>
out side</w>
imp act</w>
cont act</w>
so r</w>
sub ject</w>
vi ol
f oc
es p
n e</w>
m ac
f ron
g ni
chec k</w>
fren ch</w>
st up
universi ties</w>
h it
ysi s</w>
up sc</w>
bab y</w>
m c
g est</w>
chang ed</w>
p ass</w>
k a</w>
j ud
ri ghts</w>
jav a</w>
o w
pow er
app le</w>
stu dies</w>
high er</w>
int ro
langu ages</w>
val u
po in
fre e
as p
str ong</w>
physi cal</w>
jo h
ck et</w>
h am
ec u
teach er</w>
mi ght</w>
speci al</w>
e mail</w>
ci d
an i</w>
l ate</w>
buil ding</w>
t ar
g ing</w>
be gin
s or
fac t</w>
d ou
ni a</w>
character istics</w>
r ul
he art</w>
person ality</w>
intellig ence</w>
ger man</w>
rac ist</w>
f oun
beha vi
web sites</w>
s ation</w>
cel e
issu es</w>
k o
ac cor
a f
ple ase</w>
doc tor</w>
develop er</w>
me et</w>
ex tre
ma ster</w>
f al
z er
te en
e f</w>
tech ni
g a</w>
de ta
b us</w>
f at</w>
cre ated</w>
sol u
oun ds</w>
an xi
immi gr
ex er
press ure</w>
sig n</w>
n et</w>
mar ry</w>
re ci
compe ti
recomm end</w>
electr on
bran ch</w>
del et
cre dit</w>
lo s
russi an</w>
y o
fe min
econom y</w>
la ws</w>
accomp lish
prac tice</w>
smar t</w>
at a</w>
pregn ant</w>
asi an</w>
hin di</w>
tech n
curren tly</w>
dar k</w>
sing ap
startu p</w>
posi tive</w>
hy der
ther ap
s ent
re mo
d au
as on</w>
er e</w>
ex c
cl assi
wri tten</w>
part ner</w>
a ur
afri ca</w>
re f
vi du
respon si
b h
ne ar</w>
mo m</w>
in side</w>
pur sue</w>
im pro
hyder abad</w>
sp end</w>
ear ly</w>
comple te</w>
net work</w>
bit coin</w>
re public
l la
f el
cr ush</w>
indi vidu
ver y</w>
ph i
re gu
prom o
f as
com b
j ec
tal king</w>
br ing</w>
cer tain</w>
psy ch
m y</w>
k er
sel ling</w>
mat hs</w>
ter y</w>
p h</w>
cor por
ad ver
gi ving</w>
w hole</w>
ma j
p y
l l
christi ans</w>
al one</w>
doc um
windo ws</w>
c ell</w>
vide os</w>
ser i
t ext</w>
pur ch
fil m</w>
sc en
ph ones</w>
ke e
ac ting</w>
str on
ver s</w>
tur al</w>
num bers</w>
n ation</w>
comple tely</w>
s at
ou ght</w>
m ing</w>
in sur
do gs</w>
le y</w>
it able</w>
ta x
offic er</w>
ro r</w>
ren t</w>
e ts</w>
di sc
top ics</w>
y es</w>
i q</w>
w w</w>
p age</w>
li st
ma g
f ish</w>
ni t</w>
cont ent</w>
ne l</w>
ex ac
en ding</w>
curren cy</w>
o x
esp eci
p ul
m ex
sid es</w>
christi an</w>
pun e</w>
de stro
a tional</w>
re g
ic k</w>
am ong</w>
mex ic
fac tors</w>
su mm
glo bal</w>
especi ally</w>
ti al</w>
he ad
religi ous</w>
ho ld</w>
t on
cb se</w>
s av
fron t</w>
ant ly</w>
av y</w>
we ap
so ft</w>
si ty</w>
nee ded</w>
exac tly</w>
accor ding</w>
po lic
sa ve</w>
dist ance</w>
stup id</w>
fe ar</w>
fi x</w>
mo st</w>
s a</w>
ar tic
j es
co ld</w>
f ran
c ate
pla ying</w>
re duce</w>
li es</w>
n ames</w>
son gs</w>
ly wood</w>
treat ment</w>
se qu
c t</w>
co lor</w>
mar k</w>
d est</w>
fre sh
n er
des p
tra in</w>
t in
r ace</w>
e ast</w>
con tribu
st op
o ds</w>
insur ance</w>
pr o</w>
se par
de b
hal f</w>
z z
al ter
electri cal</w>
bo ys</w>
c ent</w>
ma x
ey es</w>
att ack</w>
p al</w>
no vel</w>
m ur
hur t</w>
y er</w>
tem per
sh e
fir e</w>
au di
p c</w>
commun ity</w>
gro w
cate g
can di
proce d
n al</w>
bu ying</w>
min imum</w>
ch ed</w>
advan ced</w>
te ach</w>
de ad</w>
co ver</w>
polic y</w>
pa ti
at ures</w>
w el
su me</w>
democr ats</w>
sim ple</w>
w ai
fri end
u p</w>
le tter</w>
afric an</w>
e qui
gre en</w>
opport unities</w>
in clud
oc cu
develop ed</w>
ey e</w>
b as
econom ic</w>
ar t
le ad</w>
thou ght</w>
gra v
econom ics</w>
con fi
in depend
i or</w>
as king</w>
multi ple</w>
ac tive</w>
hind u</w>
re act</w>
play er</w>
no t</w>
electri c</w>
ar g
re ly</w>
as soci
cle ar</w>
in don
con struc
le n</w>
m ate</w>
run ning</w>
mathema tics</w>
d ly</w>
c amer
indon e
mi c</w>
resul t</w>
d o</w>
meth od</w>
inv en
ab road</w>
proced ure</w>
anal ysis</w>
gra tion</w>
al most</w>
g in</w>
di vi
ec h</w>
easi ly</w>
c ars</w>
grow th</w>
ve red</w>
press ed</w>
be auti
t i</w>
anxi ety</w>
trans fer</w>
appe ar</w>
di stri
cali for
foot ball</w>
sy st
en ly</w>
ad e</w>
tion ally</w>
mast ers</w>
de li
bl ue</w>
m el
s aying</w>
tra di
import ance</w>
fic ation</w>
j our
strate gy</w>
gre ssi
vo te</w>
situ ation</w>
rest aur
mo on</w>
j p</w>
g un
beauti ful</w>
summ er</w>
d ama
ci ties</w>
can not</w>
v ement</w>
cla im</w>
anim al</w>
an n
z ing</w>
l ess
di sp
p ack
bo x</w>
m i</w>
j i
g y
ne igh
he ard</w>
ch en
anci ent</w>
wh ere</w>
feren ce</w>
con duc
t ect</w>
speci fic</w>
fu n</w>
d on</w>
drin k</w>
some times</w>
accomplish ments</w>
lat er</w>
er ous</w>
man age</w>
li ves</w>
in a</w>
fin ance</w>
ch at</w>
pro te
vel s</w>
poli tics</w>
dau ghter</w>
cl asses</w>
s at</w>
pro file</w>
ex per
u ght</w>
si ster</w>
indu stri
ar ti
stand ard</w>
m et</w>
cho ice</w>
s r
is o
califor nia</w>
bir th</w>
ste ps</w>
lin k</w>
chang es</w>
survi ve</w>
si n</w>
b y</w>
v ac
syst ems</w>
nat ure</w>
can cer</w>
w ars</w>
li gh
li n</w>
vi ous</w>
su ggest</w>
singap ore</w>
s ca
rec ently</w>
cle an</w>
de ep</w>
par ts</w>
te l</w>
di ed</w>
d um
b om
jes us</w>
phi los
k h
tr act</w>
ke ts</w>
can adi
for ms</w>
ac tions</w>
perf ect</w>
la w
attrac tive</w>
as ing</w>
agre e</w>
t ory</w>
mater ial</w>
mal ay
b on
y ed</w>
a c</w>
power ful</w>
ev ents</w>
enjo y</w>
at tem
a x
narcissi st</w>
over come</w>
an cy</w>
mar y</w>
qu es</w>
kill ed</w>
cour t</w>
z e
lin es</w>
wan ted</w>
c g
spor ts</w>
sho ws</w>
p es</w>
gu e</w>
elec ted</w>
resp ect</w>
contin ue</w>
lon ger</w>
intern ship</w>
eff ici
b jp</w>
tra ding</w>
plac ement</w>
desp ite</w>
br and</w>
re sources</w>
et h</w>
con vin
anim e</w>
se ems</w>
hy po
c m</w>
tou ri
stan ding</w>
com for
arch it
tam il</w>
me ans</w>
s an
ap e</w>
rec ent</w>
b att
re turn</w>
na i</w>
ent ally</w>
eng ine</w>
is sue</w>
gre ss</w>
stor ies</w>
de man
qu e
con cer
hit ler</w>
di se
h oo
fin al</w>
feel ings</w>
reali ze</w>
plan ning</w>
chen nai</w>
blo ck</w>
ad ult</w>
w ise</w>
tra de</w>
g st</w>
ac cess</w>
psych op
al a</w>
regar ding</w>
mom ent</w>
m ol
comp are</w>
ch a
m ir
gen e
proper ty</w>
c ally</w>
al co
sup por
psycho logy</w>
fre qu
consider ing</w>
lo ss</w>
col on
hind us</w>
ch ic
philos oph
i as</w>
dis order</w>
se ason</w>
im ple
b ol
suc cess</w>
di et</w>
origin al</w>
temper ature</w>
sol di
en ter
con stitu
mast urb
deter mine</w>
b ill</w>
t end</w>
it ali
cryp to
conver t</w>
spe aking</w>
y m
ver sion</w>
su n</w>
ul ar
s app</w>
communic ation</w>
ho t</w>
hi t</w>
dang erous</w>
mb bs</w>
ici de</w>
v al</w>
sy mp
por n</w>
o m</w>
f ru
le av
l ord</w>
fun d</w>
sch ol
ho sp
des h</w>
che ap
re si
pro duce</w>
al ong</w>
tu m</w>
con sul
commer ce</w>
c ame</w>
ger y</w>
civi li
liber al</w>
y or
ol der</w>
mi sta
tr ust</w>
joh n</w>
we al
vo ice</w>
vi et
scienti fic</w>
sp an
li e</w>
ath s</w>
re action</w>
pot ential</w>
pro tec
p m</w>
li kes</w>
h ic
at ors</w>
demo cra
ess es</w>
alco ho
ss c</w>
form ed</w>
exp ensive</w>
t y
in no
si mp
pl ant</w>
z y</w>
whe ther</w>
j un
v a</w>
us ually</w>
min u
per for
every day</w>
b ac
sup p
f air</w>
re vol
i an</w>
what sapp</w>
se ver
gre e
b eng
re ach</w>
appli cations</w>
f s</w>
sup er</w>
g al
charac ters</w>
vi a</w>
sal es</w>
requi re
re sid
a tives</w>
calcul ate</w>
ar m</w>
regu lar</w>
is ed</w>
hy dro
ou ri
gradu ation</w>
great est</w>
ti t
influ ence</w>
manag er</w>
wee ks</w>
rec ru
pl om
pa in
nee ds</w>
follow ing</w>
u n</w>
cri me</w>
ci al</w>
ad dress</w>
us er</w>
che ap</w>
it ing</w>
camp us</w>
ad dic
ex ce
perfor man
mem bers</w>
hand le</w>
kore an</w>
plan et</w>
techn ical</w>
medic ine</w>
ir ing</w>
adver ti
di plom
pro bab
fr ance</w>
foc us</w>
sh op
la un
dro p</w>
dom in
blo g</w>
ag ue</w>
tri ed</w>
evi dence</w>
oo r</w>
m ou
lo cal</w>
b ase</w>
p ping</w>
el ess</w>
st ance</w>
w ent</w>
g ers</w>
benefi t</w>
su icide</w>
ill ing</w>
scre en</w>
bi ble</w>
ro w</w>
techni ques</w>
mem ory</w>
fe atures</w>
har ry</w>
g ol
cri min
ch ur
ac ts</w>
ti tu
ter ri
o f</w>
su g
citiz ens</w>
er o
re port</w>
i tion</w>
x ed</w>
ima ge</w>
equ al</w>
lo an</w>
d ates</w>
categ ory</w>
resul ts</w>
as tic</w>
certific ate</w>
wat ching</w>
sur gery</w>
to tal</w>
kno wing</w>
inspi red</w>
c ru
re ality</w>
ti s</w>
us ers</w>
m ed</w>
produc tion</w>
intellig ent</w>
grou ps</w>
ess ed</w>
appro ach</w>
teen ag
i ran</w>
cor ru
ac id</w>
p in
cen ter</w>
per man
fa ster</w>
environ ment</w>
m ore</w>
spe ech</w>
cr ack</w>
so lar</w>
back ground</w>
poin ts</w>
performan ce</w>
sent ence</w>
bro ther</w>
ru le</w>
p ped</w>
high est</w>
id a</w>
stra ight</w>
me ant</w>
mal es</w>
di ag
dev ices</w>
ac tor</w>
na z
k ers</w>
he ight</w>
maj ority</w>
se at</w>
ob ject</w>
int en
en tr
ma d</w>
h an
pen is</w>
lish ed</w>
it h</w>
pri me</w>
dis co
d c</w>
ro ss</w>
sub jects</w>
go es</w>
con s</w>
achi ev
si an</w>
ver se</w>
d ding</w>
advant age</w>
u t</w>
s us
ter ia</w>
r ange</w>
m as
he at</w>
ac ti
f light</w>
ve hic
see ing</w>
pal est
th em
ra pe</w>
est ab
top ic</w>
al g
yor k</w>
po ly
pic ture</w>
deter min
bre ak
b in
om s</w>
l en
um e</w>
pro of</w>
di v
al i</w>
ac cid
u x</w>
chan nel</w>
t ren
rela tion</w>
g ur
cap ital</w>
st ren
p ts</w>
stat us</w>
schol ar
re view</w>
loo ks</w>
k ol
we ird</w>
bio logy</w>
in fin
ac cur
pro jects</w>
n it
for d</w>
mess age</w>
bat tery</w>
tr ack</w>
milli on</w>
gg er</w>
employe es</w>
convin ce</w>
loc ation</w>
b ly</w>
challeng es</w>
i di
ev ent</w>
ste p</w>
entr ance</w>
tra ff
poli tici
pl ying</w>
ori th
li m
ri c</w>
conce pt</w>
hi stor
m un
n d</w>
pro s</w>
je wish</w>
ch ain</w>
alg orith
a h</w>
max imum</w>
lon don</w>
gi c</w>
rul es</w>
plat form</w>
ill ary</w>
engine ers</w>
b an</w>
tim ate</w>
st ers</w>
p et</w>
deci de</w>
u k
bi a</w>
tre ated</w>
pre dic
plac ed</w>
st ly</w>
deci sion</w>
con n
k y</w>
is lam
spe ak
span ish</w>
invol ved</w>
influ enced</w>
ca used</w>
acti vi
reco gni
ma r</w>
citiz en</w>
th ird</w>
ph ili
dri ving</w>
tru th</w>
gun s</w>
th i
o d
bio graphy</w>
su dd
camer a</w>
b illi
deta ils</w>
spi ri
pl ants</w>
exp ected</w>
sy ri
tur ing</w>
sudd enly</w>
se tt
plan e</w>
stren g
b ach
too k</w>
ac king</w>
sho p</w>
distri bu
ang le</w>
tw it
h at
s tic
qu ick
ak a</w>
a fra
w all</w>
meth ods</w>
me tal</w>
he ar</w>
z i
sh or
e u</w>
w ed</w>
sy m
e e</w>
stre am</w>
ro bo
go ld</w>
re pe
diff er</w>
athe ists</w>
kill ing</w>
cul tural</w>
swit ch</w>
progra ms</w>
dis advantages</w>
pro cess
n ice</w>
bl in
w it
sta tis
r o</w>
k ash
afra id</w>
g an</w>
pay ing</w>
py th
t t</w>
pic tures</w>
mil k</w>
us h
pro tect</w>
port ers</w>
des er
h ire</w>
f our</w>
cri cket</w>
m l</w>
arg um
ar ts</w>
requ ire</w>
ac ross</w>
ge o
t un
re member</w>
mar i
ta kes</w>
fas hi
secre t</w>
recei ve</w>
j i</w>
leg ally</w>
canadi an</w>
fav ouri
de part
v ali
h illary</w>
eli gi
so on</w>
ma s</w>
any more</w>
ge or
li mit</w>
er y</w>
d am
k et</w>
a vi
tur key</w>
pl us</w>
free dom</w>
ris k</w>
ma t</w>
individu al</w>
inte gr
comm it
c ash</w>
jo ining</w>
actu al</w>
str ang
rom an
f a</w>
tu ally</w>
d ad</w>
u lar</w>
th an
ta in
ent repre
bud get</w>
re d
i v
t u</w>
l ying</w>
immigr ants</w>
dru g</w>
re gre
ei ther</w>
dra w</w>
car ry</w>
c ore</w>
prin ci
l ack</w>
h ome
ari an</w>
favouri te</w>
to m</w>
uni on</w>
d oor</w>
cy cle</w>
bec ame</w>
asi a</w>
k et
contin u
prepar ing</w>
relation ships</w>
mag ne
traff ic</w>
evi l</w>
d den</w>
weap ons</w>
d in
cl int
ri ed</w>
basi s</w>
achi eve</w>
ob s
democr acy</w>
c ise</w>
we dding</w>
fe der
s er</w>
c as
wai t</w>
sp her
pyth on</w>
extre m
r at
experi enced</w>
es ti
o t</w>
eng land</w>
r ound</w>
conserv atives</w>
gi es</w>
are as</w>
enti re</w>
cent ury</w>
archit ec
stre ss</w>
responsi ble</w>
lo ad
ex ecu
grav ity</w>
g and
il ing</w>
fla t</w>
ali st</w>
tur ned</w>
re serv
man ip
cir cu
al ing</w>
doc tors</w>
purch ase</w>
gi ves</w>
co ding</w>
ar ies</w>
ep iso
a b</w>
w on
too ls</w>
ap art</w>
r ated</w>
m es</w>
f ail</w>
val ent</w>
re place</w>
op t</w>
appli ed</w>
ni ger
op po
st ation</w>
na tion
l o</w>
hom o
a tic</w>
pe ace</w>
f ly</w>
fi ve</w>
coun t</w>
chang ing</w>
photo s</w>
titu de</w>
bach el
activi ties</w>
wor se</w>
wa ve</w>
ach ed</w>
sup porters</w>
pr e</w>
alcoho l</w>
s li
k is
na m</w>
mater i
t ch</w>
lo sing</w>
le ague</w>
diag no
ther n</w>
es sion</w>
ar tific
lic ense</w>
d ation</w>
cre ative</w>
se a</w>
c ked</w>
wri ter</w>
pro fit</w>
emp ire</w>
sle e
ap plying</w>
fail ed</w>
delet e</w>
cra ft</w>
teach ers</w>
t es
sc ale</w>
b ad
d u</w>
be at</w>
zer o</w>
ili ties</w>
vari ous</w>
l and
dou ble</w>
rec or
p o</w>
na tions</w>
conserv ative</w>
k ata</w>
reas on
all er</w>
si t</w>
republic ans</w>
la s</w>
j er
ac ked</w>
clo th
bi ke</w>
conn ect</w>
con sci
clint on</w>
seri ous</w>
dev ice</w>
cou ple</w>
c ure</w>
s an</w>
pregn ancy</w>
ish ed</w>
form er</w>
micro soft</w>
therap y</w>
ss es</w>
pre t
for mul
or ing</w>
att en
s y</w>
kol kata</w>
o wn
mo del
deman d</w>
c ats</w>
am ing</w>
produc ed</w>
n ad
dist in
al y</w>
signific ant</w>
de pressed</w>
w ho
ab use</w>
n ic
e state</w>
wh it
sun g</w>
conver sation</w>
b ay</w>
tom s</w>
sec tor</w>
div or
te red</w>
du bai</w>
tu red</w>
s al</w>
st age</w>
ad minist
wee k
f i</w>
no w
batt le</w>
dru gs</w>
bal ance</w>
paren t</w>
coo l</w>
s q
ma y
h ands</w>
gener ally</w>
fashi on</w>
k id</w>
h a</w>
contro l
b on</w>
tri p</w>
st ant</w>
clu de</w>
play ers</w>
symp toms</w>
re ti
comple ting</w>
cloth es</w>
so li
require ments</w>
fun ds</w>
pre vious</w>
co ffe
s pre
l ars</w>
en ter</w>
sa w</w>
hou r</w>
a z
y al</w>
for ces</w>
b ar</w>
sec ure</w>
pap ers</w>
gro wing</w>
emo tional</w>
electron ics</w>
mexic o</w>
l es
d an
stre et</w>
inve sting</w>
f lo
bl es</w>
fi gh
comp la
bi ts</w>
lat est</w>
re r</w>
p g</w>
i i</w>
fe ed</w>
en try</w>
we ather</w>
we aring</w>
eng th</w>
c lear
ver t</w>
ud i</w>
c et</w>
cel ls</w>
mat ch</w>
qu an
ex change</w>
as se
e a
bus in
buil t</w>
artific ial</w>
u r</w>
l ands</w>
gener ation</w>
ber t</w>
sig ns</w>
s ort</w>
dre ams</w>
ver i
equ ation</w>
s elected</w>
chri st
mi r</w>
ke y
corpor ate</w>
centr al</w>
b ing</w>
fe e</w>
be sides</w>
b un
ac tre
h um
const antly</w>
soldi ers</w>
rou gh
pas sport</w>
coffe e</w>
t ol
t age</w>
mor ning</w>
har d
bang la
ath y</w>
and a</w>
ra y</w>
fe et</w>
sho t</w>
graph ic</w>
con sum
con gress</w>
minist er</w>
car ds</w>
appro pri
twit ter</w>
some body</w>
ap o
rec ord</w>
partic ular</w>
i os</w>
cele bri
valu es</w>
tr ou
lo ck</w>
extrem ely</w>
j ected</w>
e ding</w>
n t</w>
direc tly</w>
tru ly</w>
de fe
prac tic
ho tel</w>
gu il
func tions</w>
commer cial</w>
behavi or</w>
attrac ted</w>
uni que</w>
follow ers</w>
d ry</w>
li fe
ho st
dol lars</w>
comfor table</w>
lo ts</w>
employe e</w>
ban king</w>
atten tion</w>
mess ages</w>
lead er</w>
k u
accep ted</w>
simp ly</w>
ri se</w>
re por
formul a</w>
eg yp
drin king</w>
di a</w>
condi tions</w>
accoun ts</w>
w are</w>
ffe red</w>
c um
aw are</w>
t ent</w>
spec ies</w>
k ri
depart ment</w>
immi gration</w>
hu ge</w>
fir m</w>
con sequ
teach ing</w>
ar ms</w>
an ity</w>
an no
sam sung</w>
ph arm
pat ter
lim ited</w>
te sting</w>
easi er</w>
jus tice</w>
democra tic</w>
construc tion</w>
direc t</w>
s ar
electri city</w>
si mil
gi ft</w>
dat ab
wal k</w>
tax es</w>
ser ver</w>
pi ece</w>
g ri
dise ase</w>
c ope</w>
bro wn</w>
bir th
stra tion</w>
connec tion</w>
conf lic
bro ken</w>
vi t</w>
i ds</w>
dama ge</w>
log ist</w>
ill ed</w>
mo vement</w>
l un
cl es</w>
speci fic
smar t
vi sion</w>
resp ond</w>
c c</w>
k en
bri tain</w>
chur ch</w>
bo ards</w>
te en</w>
sup posed</w>
pre ci
lar gest</w>
sto cks</w>
includ ing</w>
exp lo
aff ected</w>
un ity</w>
restaur ant</w>
p it
n ur
tion ed</w>
ta ste</w>
sec on
p ag
ang ry</w>
quan tum</w>
ca ste</w>
p y</w>
ir on</w>
ai ims</w>
sp on
cre ating</w>
tradi tional</w>
tici p
gr and
re ta
le vels</w>
g ure</w>
acade mic</w>
te eth</w>
mus cle</w>
il ed</w>
pack age</w>
custom er</w>
fe es</w>
d na</w>
sn ap
sex u
jus ti
wor d
l uc
et er</w>
typ ical</w>
t ant</w>
s i</w>
a h
tel s</w>
physi cally</w>
phili pp
on ym
all ing</w>
r i</w>
ex tra</w>
any body</w>
pic k</w>
identi fy</w>
easi est</w>
y el
sca red</w>
s ad</w>
exer cise</w>
ug ly</w>
mor al</w>
per s</w>
gu it
tou ch</w>
sh ir
manufac turing</w>
dis h</w>
reco ver</w>
pakist ani</w>
sy lla
materi als</w>
la u
tt on</w>
te sts</w>
pho to</w>
g ation</w>
comm ents</w>
b ru
a ti
ox y
fre el
la y</w>
f low</w>
ac tiv
too l</w>
supp ly</w>
no te</w>
ou se</w>
cat ho
candi date</w>
w av
mo stly</w>
de si
cl oud</w>
dr a</w>
sur face</w>
don t</w>
c ast</w>
ig nor
a st
per form</w>
indone sia</w>
centr e</w>
b sc</w>
under graduate</w>
tion ary</w>
sp ac
philosoph y</w>
o es</w>
meas ure</w>
li qu
h ar</w>
ex press</w>
me t
condi tion</w>
viet nam</w>
se n</w>
le gi
col our</w>
m er</w>
ess ay</w>
ra ti
orig in</w>
bra z
ad ap
list en</w>
lo ved</w>
an o</w>
inven ted</w>
christi anity</w>
ari o</w>
recei ved</w>
europe ans</w>
ali ve</w>
signific ance</w>
s na
pay ment</w>
sug ar</w>
u l</w>
pi lot</w>
c ement</w>
sh ar
camp ai
li ed</w>
gu i
car bon</w>
sec tion</w>
develop ing</w>
stu ff</w>
islam ic</w>
g one</w>
fi re
probab ility</w>
disc us
const ant</w>
architec ture</w>
quick ly</w>
po st
employ ment</w>
cheap est</w>
ban ks</w>
neu ro
ris ks</w>
plac ements</w>
k an
attem pt</w>
independ ent</w>
f l</w>
em er
rac ism</w>
jour n
exce pt</w>
dom ain</w>
bi gger</w>
fil es</w>
proper ties</w>
f le
comple x</w>
str um
ne ur
gam ing</w>
um s</w>
fal se</w>
u ber</w>
lin ux</w>
is tic</w>
de m
sylla bus</w>
cal ls</w>
s che
ho tels</w>
hosp ital</w>
destro y</w>
c tion</w>
sh all</w>
pur su
i im</w>
v it
ig n
for get</w>
dy nam
qu it</w>
ga ve</w>
effici ent</w>
an onym
cli mate</w>
ra p
ad ul
sm ell</w>
stop ped</w>
stat ement</w>
offic ers</w>
n y
kee ps</w>
diplom a</w>
alter native</w>
ab or
u to</w>
je al
h an</w>
ban ned</w>
pot ter</w>
oppo site</w>
gree k</w>
ta tions</w>
sa tis
kar nat
inst all</w>
bol lywood</w>
s bi</w>
pri son</w>
b es</w>
tur k
play ed</w>
pre s
exist ence</w>
eng er</w>
c in
squ are</w>
n as
in strum
ran dom</w>
li br
gand hi</w>
di scri
ach es</w>
who se</w>
statis tics</w>
sa udi</w>
l ength</w>
chic ken</w>
st one</w>
up on</w>
p u</w>
karnat aka</w>
ev en
y ers</w>
reli able</w>
slee ping</w>
fresh er</w>
minu tes</w>
elec tions</w>
s low</w>
mis si
tra its</w>
p ath</w>
ord in
g on</w>
fin ding</w>
ec tion</w>
as ks</w>
spher e</w>
smo king</w>
in sul
industri al</w>
be gin</w>
ab solu
fel t</w>
promo te</w>
par ticip
m ill
g n</w>
fi gure</w>
discri min
c ases</w>
word press</w>
ta ught</w>
ru de</w>
re duc
leav ing</w>
f it
defin ition</w>
organ ic</w>
foo ds</w>
w ash
tur ning</w>
cg l</w>
rele v
no tes</w>
in si
fer red</w>
de mon
main tain</w>
d r</w>
th rough
organ is
cap ac
scholar ship</w>
he avy</w>
gen u
regre t</w>
lo ves</w>
it aly</w>
datab ase</w>
cl in
we ak</w>
ec tively</w>
ra ise</w>
viol ence</w>
palest ini
accur ate</w>
uni t</w>
tre e</w>
sex ually</w>
er al</w>
pro sp
histor ical</w>
heal th
pass word</w>
imple men
gra m
er ship</w>
su peri
n avy</w>
j ames</w>
al le
mis s</w>
connec ted</w>
rest ri
o ce
malay sia</w>
logi es</w>
in clude</w>
h r</w>
gl ass</w>
fic tion</w>
lead ers</w>
k it
f ine</w>
sen si
po p</w>
pass ed</w>
low ing</w>
att end</w>
an ces</w>
s l
philipp ines</w>
ph r
kin g
inv esti
cro ss</w>
appropri ate</w>
v an
reci pes</w>
mu tual</w>
i p</w>
tem por
experi ences</w>
occu r</w>
col lec
clu b</w>
b ought</w>
r d</w>
mar s</w>
administ ration</w>
ma tic</w>
m entally</w>
re main</w>
m ass
th o
scienti sts</w>
ker ala</w>
col um
ri ch
ra il
du le</w>
b la
ho li
ide al</w>
f ro
si ck</w>
on to</w>
nu tri
liter ature</w>
da vi
ac tors</w>
pati ent</w>
coo k</w>
bur n</w>
the sis</w>
su pre
birth day</w>
terror ist</w>
me at</w>
er a</w>
def ine</w>
cu p</w>
sk y</w>
sa fe
indi c
blo cked</w>
re fu
neigh bor
m oun
al la
stom ach</w>
ro l
h ell</w>
evol ution</w>
co ins</w>
x ing</w>
su itable</w>
separ ate</w>
po l
d ance</w>
i b
de st
sho wing</w>
ma har
high ly</w>
fam ili
sp ouse</w>
z ations</w>
exper im
ki m</w>
fail ure</w>
consequ ences</w>
ari ties</w>
air port</w>
revol ution</w>
pret ty</w>
mi cha
t ac
sho es</w>
is ing</w>
constitu tion</w>
weal th</w>
visi ting</w>
mar vel</w>
b y
pl astic</w>
exer cis
di men
a stro
per ce
ch am
com man
human ity</w>
under standing</w>
tur ns</w>
shoo ting</w>
ra ge</w>
on ic</w>
kash mir</w>
clo thing</w>
c ab
wa ke</w>
prac tical</w>
el ements</w>
to wn</w>
tex as</w>
wa ste</w>
streng th</w>
niger ia</w>
g d
begin ner</w>
al lo
ter min
tel ling</w>
strate gies</w>
tion ing</w>
r ome</w>
prote in</w>
j ack
eth ical</w>
di sh
syri a</w>
star s</w>
rati o</w>
com mit</w>
wh ats</w>
the ore
competi tive</w>
accep table</w>
busin esses</w>
actre ss</w>
gressi ve</w>
crypto currency</w>
bri dge</w>
scienti st</w>
wi de</w>
g pa</w>
beli ev
vi lla
r ang
la k
sp ain</w>
p r</w>
eligi ble</w>
d ul
micha el</w>
le ts</w>
go al</w>
w il
docum ents</w>
assi stant</w>
through out</w>
roo t</w>
health care</w>
ap art
se o</w>
s d</w>
pro per</w>
happ ening</w>
fun ny</w>
soci op
hin du
ch ap
call ing</w>
co st
car ri
rom an</w>
identi ty</w>
cel er
bo r</w>
rele ase</w>
su m</w>
quor ans</w>
gal ax
di n</w>
desig ning</w>
up date</w>
perman ent</w>
organi zation</w>
ze al
impro ved</w>
cle an
w illing</w>
sh ape</w>
at om
cra zy</w>
deb t</w>
artic le</w>
ag ent</w>
suff ering</w>
air s</w>
ima ges</w>
har v
g ton</w>
figh ting</w>
f are</w>
cop y</w>
te a</w>
pr on
logi c</w>
liter ary</w>
hel p
hel d</w>
fu el</w>
her o</w>
disco vered</w>
analy tics</w>
ul ate</w>
spo t</w>
ne pal</w>
la tions</w>
j ar
bachel or</w>
st am
mou th</w>
mit ted</w>
hol lywood</w>
dis like</w>
the re
t at
ro ck</w>
fl or
en em
b tech</w>
sa f
cri sis</w>
youn ger</w>
gh t
d ated</w>
h t
associ ated</w>
s and
chil dh
nad u</w>
exp ec
xi de</w>
politici ans</w>
dri ver</w>
qu anti
n ag
m c</w>
ill ness</w>
fac ed</w>
crimin al</w>
we red</w>
st y</w>
roman tic</w>
oc ity</w>
intro duc
poo l</w>
cri teria</w>
turk ish</w>
tic ket</w>
t ally</w>
sto r</w>
mo di
guit ar</w>
childh ood</w>
ag ri
que en</w>
offic ial</w>
cri tical</w>
asi ans</w>
an g</w>
ac celer
ular ly</w>
f an</w>
equi valent</w>
sen ior</w>
f ill</w>
con ven
char ges</w>
ac tivity</w>
vir tual</w>
vehic le</w>
k y
help ful</w>
electron ic</w>
ul ty</w>
pu tin</w>
int el
gy m</w>
emo tions</w>
coun ter</w>
blo ck
vel ocity</w>
solu tions</w>
snap chat</w>
simil arities</w>
m sc</w>
kno ws</w>
feel s</w>
ti li
recru it
par k</w>
delet ed</w>
po lar</w>
friend ly</w>
di o</w>
fic ial</w>
desig ner</w>
adv is
z o
se me
proper ly</w>
i el
gra d</w>
com ment</w>
ver si
ri f
k i</w>
f arm
w illi
v t</w>
re jected</w>
t an</w>
quo ta</w>
oxy gen</w>
ste el</w>
safe ty</w>
religi ons</w>
n on
mo tor</w>
ad ded</w>
pe tro
ob c</w>
no tic
h ood</w>
cu to
no se</w>
for ward</w>
obs essed</w>
am ed</w>
wh en
teenag er</w>
sever al</w>
rele ased</w>
l or
ti ll</w>
rela tions</w>
bangla desh</w>
o ffered</w>
athe ist</w>
air craft</w>
po wers</w>
liqu id</w>
ag ed</w>
wri ters</w>
startu ps</w>
sc rat
mi gr
lear ned</w>
l ers</w>
gra des</w>
th ly</w>
s u</w>
r ying</w>
r ates</w>
ga z
cele br
b t</w>
wor ried</w>
pri ces</w>
poli cies</w>
when ever</w>
ent ary</w>
divor ce</w>
blin d</w>
we ed</w>
tran si
pri mary</w>
mista ke</w>
im medi
hi p</w>
cir cum
bro ke</w>
po em</w>
off ers</w>
inter pre
che ating</w>
st on</w>
pursu ing</w>
ga p</w>
fun dam
acade my</w>
u t
intern al</w>
fa st
d ent</w>
australi an</w>
s wi
hi de</w>
en cies</w>
o s
nat ur
col l
ab ly</w>
it or</w>
thin ks</w>
repre sen
re pu
in o</w>
great er</w>
ger man
em bar
ach e</w>
j am
w oo
trou ble</w>
r t</w>
p il
so ld</w>
f an
p ure</w>
p d</w>
m p</w>
ign ore</w>
cr y</w>
bud dh
si mul
consider ation</w>
b el</w>
ag ency</w>
ta ble
fe ature</w>
remo ved</w>
har m
direc tion</w>
vol ume</w>
sub scri
ss ed</w>
no tice</w>
h en
pr int</w>
li ghts</w>
c es
k g</w>
ji o</w>
i ze</w>
i re
fac tor</w>
a ks</w>
ph ase</w>
str u
feder al</w>
char ged</w>
certific ation</w>
w an</w>
relev ant</w>
ch ron
de tec
att acks</w>
jeal ous</w>
geor ge</w>
um ps</w>
tar get</w>
ow ner</w>
fla g</w>
emo tionally</w>
c enti
work out</w>
natur ally</w>
m on</w>
b ond</w>
we ak
republic an</w>
medi um</w>
lo g</w>
li er</w>
in de
go als</w>
for ced</w>
distin gu
work ers</w>
cu sto
chri st</w>
b is
o l</w>
fiel ds</w>
even tually</w>
degre es</w>
ri es</w>
o v
di c</w>
ri ce</w>
regi ster</w>
ra tional</w>
j ac
ta i
si x</w>
re public</w>
ire land</w>
fil ms</w>
dom es
b c</w>
vol tage</w>
inno v
r y
episo de</w>
d le</w>
conflic t</w>
st able</w>
russi ans</w>
li t</w>
i e</w>
h d</w>
arti st</w>
ag ing</w>
k ur
ex ter
et er
bo ss</w>
su it</w>
specific ally</w>
p i</w>
magne tic</w>
g b</w>
educ ated</w>
bro w
arab ia</w>
mi d</w>
jec tion</w>
incre asing</w>
dec ent</w>
ali zation</w>
sym bo
k id
custom ers</w>
b ag
travel ing</w>
quo tes</w>
k el
f ying</w>
di um</w>
der ing</w>
al ty</w>
ea stern</w>
ar ab</w>
ten sion</w>
superi or</w>
seme ster</w>
pun ish
foo t</w>
develop ers</w>
comp ar
su gg
e fs</w>
tt ers</w>
mur der</w>
j s</w>
col lap
touri st</w>
respon se</w>
ju ana</w>
campai gn</w>
d ary</w>
cl ass
wor ked</w>
harv ard</w>
exam ination</w>
cri mes</w>
accoun ting</w>
w ol
ta ins</w>
suc ce
opport unity</w>
jud ge</w>
em ber</w>
cuto ff</w>
bl ack
un able</w>
thou s
hydro gen</w>
h ope</w>
gh o
ad di
win ter</w>
eff ectively</w>
bl acks</w>
u g</w>
is on</w>
en ted</w>
sugg es
ri o
r out
kee ping</w>
ta ining</w>
p on
mo tion</w>
es cap
w as
naz i</w>
it ems</w>
hab its</w>
ve y</w>
ti red</w>
tan k</w>
regi on</w>
cre di
sk ill</w>
se tting</w>
ex act</w>
so c
p ush</w>
vir us</w>
v ag
sk in
po sts</w>
ni c</w>
neu tr
manip al</w>
l ine
itali an</w>
con trac
i r</w>
an ce
smo ke</w>
model s</w>
li f
gener ate</w>
estab lished</w>
thre at
terror ism</w>
re ment</w>
di gi
pro ph
go tten</w>
f loo
curren cies</w>
ca ught</w>
c l</w>
vo tes</w>
aff ord
re ference</w>
me eting</w>
flor ida</w>
cis co</w>
j ective</w>
guil ty</w>
christ mas</w>
ste red</w>
smart phone</w>
psychop aths</w>
mari juana</w>
hy per
a u</w>
zeal and</w>
re sume</w>
mista kes</w>
ma c</w>
con tract</w>
sha res</w>
har m</w>
fast est</w>
comple ted</w>
tit le</w>
n om
in i</w>
bl ame</w>
to x
sig n
mon thly</w>
mi x</w>
b ba</w>
ab u
terror ists</w>
stron ger</w>
ref use</w>
le gs</w>
i sis</w>
cri pt</w>
vali d</w>
thro w</w>
determin ed</w>
pa ul</w>
contribu te</w>
bene ficial</w>
al ph
ab ilities</w>
refu ge
m r</w>
host el</w>
arab ic</w>
pl ans</w>
gr e</w>
friend ship</w>
cre am</w>
bi c</w>
visi ble</w>
law yer</w>
ini ti
fore ver</w>
comp on
an e</w>
t all</w>
la b</w>
galax y</w>
compu ters</w>
becom es</w>
pro pag
ke pt</w>
gradu ates</w>
defe at</w>
she et</w>
ori ties</w>
commun ist</w>
analy st</w>
per cent</w>
frequ ency</w>
fa ult</w>
travel ling</w>
scen e</w>
on i
candi dates</w>
ti m</w>
ish es</w>
ig no
co gni
wal king</w>
star ts</w>
ro ll</w>
narcissi stic</w>
n els</w>
algorith m</w>
ad ays</w>
ob tain</w>
employ er</w>
at ory</w>
at er</w>
ve get
trans gender</w>
t c</w>
re fer</w>
pass ing</w>
now adays</w>
adul ts</w>
ti le</w>
e ar</w>
confi dence</w>
be au
afford able</w>
ad o
dum b</w>
bre aking</w>
stic k</w>
mo de</w>
man i
happ iness</w>
ga re
ti er</w>
h iring</w>
gra ph</w>
d enti
wor l
ro yal</w>
pl ate</w>
bo w
artic les</w>
k u</w>
bu tton</w>
tw in</w>
ro bert</w>
infin ity</w>
es h</w>
d ying</w>
br ands</w>
su s</w>
si k
or al</w>
nar uto</w>
f ur
be y
l ac
tw ice</w>
psycho logical</w>
j a</w>
exercis es</w>
mar ine</w>
se ats</w>
independ ence</w>
yel low</w>
s ac
femin ists</w>
bra h
a e</w>
suff er</w>
spre ad</w>
pra desh</w>
ber g</w>
s election</w>
programm er</w>
par ties</w>
harm ful</w>
fre sh</w>
cu lar</w>
cal ories</w>
beli efs</w>
z er</w>
sq l</w>
n c</w>
la tin</w>
il es</w>
is es</w>
ex plan
deci ded</w>
ad mit</w>
scen ario</w>
reali stic</w>
fe males</w>
ac ted</w>
soc cer</w>
sexu ality</w>
provi ded</w>
men tioned</w>
exist ing</w>
dra wing</w>
vi et</w>
shoo t</w>
radi o</w>
intel lec
restaur ants</w>
hou se
bat man</w>
ang el
adverti sing</w>
on y</w>
on a</w>
embar r
bor der</w>
bab ies</w>
ari ly</w>
mahar ash
wav es</w>
v ice</w>
shi ft</w>
ra t</w>
is land</w>
di am
def ense</w>
as sum
arab s</w>
ad es</w>
motiv ated</w>
f alling</w>
am i</w>
thre at</w>
swe den</w>
p d
nam ed</w>
dec re
ar ly</w>
adv ance</w>
pu tting</w>
or ders</w>
c lic
begin ning</w>
is c</w>
e pi
ch er</w>
asp ects</w>
reci pe</w>
l ore</w>
si r</w>
s ab
patter n</w>
ma p</w>
laun ch</w>
ban ds</w>
su sta
sal t</w>
hoo ds</w>
fa ith</w>
cre te</w>
qu ar
gg ing</w>
bl ing</w>
prof itable</w>
possi bility</w>
fl ying</w>
ap preci
sol ved</w>
quali ties</w>
differen tly</w>
abu sive</w>
to i
tel ls</w>
sto res</w>
st al
recomm ended</w>
in cid
f ant
extre me</w>
tes la</w>
profes sor</w>
meas u
deli very</w>
ch at
as sa
lo s</w>
lead ing</w>
kh an</w>
el i</w>
circu it</w>
techno logies</w>
gu jar
apart ment</w>
af ter
sal e</w>
ham mad</w>
f ans</w>
de posi
v ec
speak ers</w>
reserv ation</w>
pe ac
o xide</w>
ni s</w>
be d
tol er
sa p</w>
me d
bu t
val ley</w>
soli d</w>
n av
ht ml</w>
ex tent</w>
w ire</w>
pa int</w>
ex ists</w>
al u
ta tive</w>
ph en
over all</w>
b uc
requ est</w>
citiz en
sp ective</w>
mo tor
ing ly</w>
gene tic</w>
fun ding</w>
di ab
ste re
so viet</w>
r oun
invest ors</w>
aff ili
sat ur
de vi
de ad
gre ece</w>
f illed</w>
audi o</w>
sco red</w>
min or</w>
gu ar
ci l</w>
ang er</w>
w al</w>
hindu ism</w>
educ ational</w>
c el</w>
pre mi
po ss
mis sing</w>
billi on</w>
ac le</w>
tra tion</w>
ob jects</w>
ch y</w>
ic se</w>
s om
re present</w>
p lot</w>
k al
clo sed</w>
a ero
ti sm</w>
sett ings</w>
pr oud</w>
me ter</w>
fin ally</w>
fi xed</w>
ch est</w>
amaz ing</w>
no vels</w>
corru ption</w>
cop y
beau ty</w>
sp ir
re fl
jav as
davi d</w>
conce pts</w>
co s</w>
cla im
w ash</w>
stand ards</w>
re v
hel ped</w>
h ack
gui de</w>
fli x</w>
domes tic</w>
autom o
sup ple
opini ons</w>
i ra
go vt</w>
f ts</w>
decre ase</w>
comb at</w>
up coming</w>
ph p</w>
ol a</w>
maharash tra</w>
javas cript</w>
equi p
sou l</w>
ro oms</w>
l as
arm ed</w>
al ex
si ans</w>
rep ly</w>
reason able</w>
re ve
har der</w>
viol ent</w>
v acc
tempor ary</w>
su mp
seri ously</w>
oce an</w>
la dy</w>
citizen ship</w>
argum ent</w>
w wi
process ing</w>
pe n</w>
ligh t
eth nic</w>
u es</w>
sin ger</w>
s no
net flix</w>
li ved</w>
h yp
coun selling</w>
cir cle</w>
regi stration</w>
phr ase</w>
ja b</w>
ir ani
commit ted</w>
por tu
cul tures</w>
cap able</w>
ple as
less er</w>
er ror</w>
eng ers</w>
con crete</w>
ani s</w>
ven ue</w>
speak er</w>
pul l</w>
op tional</w>
op ening</w>
gl asses</w>
for mation</w>
en cou
egyp t</w>
bas ket
tel e
sh ou
scrat ch</w>
organi zations</w>
neighbor hoods</w>
m in</w>
bio logical</w>
z one</w>
vac ation</w>
t ough</w>
per spective</w>
n da</w>
in ations</w>
abor tion</w>
qu ran</w>
po ver
german s</w>
cli ent</w>
br a</w>
b oun
a tically</w>
ron es</w>
loc ated</w>
du al</w>
scri pt</w>
ath le
tel evi
t cs</w>
pre sen
k new</w>
inno cent</w>
genu ine</w>
foreig ners</w>
televi sion</w>
sm aller</w>
man g
m m</w>
li sm</w>
ss ing</w>
new sp
mi d
har ass
gr an
dol lar</w>
braz il</w>
as sume</w>
resi stance</w>
le tters</w>
com mon
mathema tical</w>
industri es</w>
sh el
in duc
graph ics</w>
s per
mo r</w>
ma gic</w>
f c</w>
v a
sr m</w>
motiv ation</w>
li a</w>
isra eli</w>
he av
environ mental</w>
comp li
bo t
t ary</w>
sur pri
stu dio</w>
pu pp
kin ds</w>
fol lowed</w>
di ver
t ons</w>
l i</w>
j ab
ga on</w>
basket ball</w>
at mo
u d</w>
tu s</w>
plan ets</w>
newsp ap
hel ps</w>
embarr ass
dro p
chan nels</w>
am end
p el
no ida</w>
mis sions</w>
k ong</w>
d ings</w>
ve ge
so il</w>
ri de</w>
l li
l g
inste in</w>
f uck</w>
comp ul
b one</w>
anno ying</w>
vi o
t ori
ish ing</w>
eg gs</w>
gar h</w>
electr on</w>
e ds</w>
distribu tion</w>
de al
all er
a il
up per</w>
li ties</w>
is er</w>
ho lo
entrepre neur
ta r</w>
prin ce</w>
ir s</w>
hon est</w>
at i</w>
ul ated</w>
min ing</w>
sche dule</w>
form ing</w>
e ma
dr ome</w>
chi at
ti an</w>
t ate</w>
re n</w>
ma gn
exter nal</w>
beng al</w>
por tra
op s</w>
mol ecu
ev alu
entrepre neu
cla ims</w>
ali ze</w>
rela tive</w>
g mail</w>
was hin
to tally</w>
shop ping</w>
le f
b our
sh y</w>
pover ty</w>
no tific
i ri
tan e
sr i</w>
re verse</w>
own ers</w>
l ou
autom atically</w>
the ories</w>
si m</w>
sho wn</w>
provi des</w>
pri or</w>
dis ney</w>
bor ing</w>
af gh
tran sp
mi ts</w>
lin ks</w>
wi ld</w>
univer sal</w>
sensi tive</w>
se y</w>
ro les</w>
ren dra</w>
psychop ath</w>
psy chiat
famili es</w>
di r
ali zed</w>
si lic
sh am
on ed</w>
medi tation</w>
me al</w>
execu tive</w>
incre ased</w>
exp an
competi tion</w>
diagno sed</w>
washin gton</w>
possi bly</w>
mi xed</w>
imple ment</w>
cap it
sh u
in d
b log
wwi i</w>
un known</w>
s ad
pati ents</w>
j ail</w>
i i
gra m</w>
classi cal</w>
um in
st uck</w>
person ally</w>
mus k</w>
g or
f ab
bal ls</w>
stan ces</w>
ma gaz
li ked</w>
i um</w>
gen o
f ar
custo m</w>
co sts</w>
ca using</w>
bey ond</w>
au to
them e</w>
sig ned</w>
na tives</w>
mat ri
h ang
desig ned</w>
cho col
z es</w>
wan ting</w>
teenag ers</w>
sou thern</w>
k ni
coo king</w>
con tain</w>
autom ation</w>
au to</w>
us ual</w>
teen age</w>
shi t</w>
ra in</w>
is sion</w>
weap on</w>
sp ring</w>
mo ved</w>
mi le</w>
mat ure</w>
ist an</w>
immedi ately</w>
cli ents</w>
ci an</w>
al o
a f</w>
co s
auti sm</w>
ai pur</w>
ac qu
s ounds</w>
mat es</w>
kis s</w>
el ement</w>
block chain</w>
sus p
sh ap
prosp ects</w>
leav es</w>
hab it</w>
fo x</w>
el on</w>
pron oun
palestini ans</w>
fra me
yo ga</w>
op hi
na rendra</w>
ba g</w>
uk ra
travel ers</w>
pub lish
oc cur
hol ding</w>
glo b
any where</w>
syn drome</w>
str ated</w>
photo graphy</w>
in ner</w>
explan ation</w>
bas e
shir t</w>
pri vi
king dom</w>
inf o
fl ash</w>
bi es</w>
un k</w>
them es</w>
inf er
def end</w>
addic tion</w>
wa iting</w>
ti mi
spo ken</w>
hor ri
foun dation</w>
ear ning</w>
bir d</w>
ant a</w>
stor age</w>
h op
ci gare
bo dies</w>
str ange</w>
sp ending</w>
li o</w>
i zed</w>
for mat</w>
f bi</w>
eli min
anonym ous</w>
wor thy</w>
whit es</w>
t te</w>
si tting</w>
ru pe
p ages</w>
il er</w>
ra w</w>
produc tive</w>
dra gon</w>
bi an</w>
achiev ed</w>
sy s</w>
libr ary</w>
la zy</w>
h tt
exc el</w>
auth or</w>
nor thern</w>
fac ing</w>
e ye
at tract</w>
vie wed</w>
sp lit</w>
re rs</w>
pur po
professi on
po int
l oud</w>
goo ds</w>
fran ch
den sity</w>
bro ad
at om</w>
wor ker</w>
spo ts</w>
narcissi sts</w>
en e</w>
deser ve</w>
catho lic</w>
t ag
sw im
rout ine</w>
pub lish</w>
practic es</w>
j et</w>
can cel
b o</w>
tro l
punish ment</w>
po ll
i ans</w>
h air
gur gaon</w>
cat ch</w>
assum ing</w>
ali sts</w>
ri cs</w>
pre scri
mir ror</w>
equip ment</w>
d ness</w>
rep air</w>
r on</w>
m u</w>
la n</w>
dri vers</w>
t ari
sel ect</w>
sco t
oper ating</w>
im pe
fi ghter</w>
concer ned</w>
bel ong</w>
b by</w>
x im
t m</w>
par alle
op ho
k ne
im possible</w>
fin ish</w>
femin ism</w>
ess ential</w>
stere o
p ted</w>
fi li
escap e</w>
aw k
vir gin</w>
ur ine</w>
u ps</w>
he aring</w>
cel l
we i
wat er
top s</w>
ti fied</w>
regi stered</w>
qu ick</w>
employ ed</w>
ali ens</w>
accid entally</w>
s chem
pd f</w>
milli ons</w>
ec o
cro w
chan di
ad ing</w>
wi fi</w>
supre me</w>
lin ke
fra c</w>
dis ci
cou ples</w>
cg pa</w>
bre ath
be ings</w>
institu tes</w>
g on
bre ast</w>
bl u
tre es</w>
re venue</w>
quali fied</w>
qu ite</w>
na ked</w>
line ar</w>
life style</w>
fa ir
ex tin
e ee</w>
cre ation</w>
s r</w>
p ack</w>
includ ed</w>
con cen
civili zation</w>
bot tom</w>
up load</w>
success fully</w>
sk y
reta il</w>
ous ness</w>
g al</w>
consci ous</w>
sp ar
protec tion</w>
load ing</w>
i iit</w>
equ ity</w>
differen ti
bit sat</w>
argum ents</w>
wi d
vo ted</w>
t ings</w>
nas a</w>
corru pt</w>
amend ment</w>
x it</w>
terri ble</w>
sh aring</w>
nec k</w>
men tion</w>
ac i
win d</w>
un t</w>
o li
mar kets</w>
inf ra
ici ent</w>
ho w</w>
conduc t</w>
bir ds</w>
therap ist</w>
disp lay</w>
th ri
refuge es</w>
per centi
linke din</w>
fran cisco</w>
des k
b ath
ad op
sol ving</w>
hi dden</w>
gen cy</w>
floo r</w>
consi st
ce o</w>
vol un
te ams</w>
sat elli
ra ble</w>
op posed</w>
fant asy</w>
en ses</w>
ec ting</w>
a sts</w>
ta ined</w>
soci ally</w>
par is</w>
pakist anis</w>
le g</w>
hou ses</w>
freel an
b ic
at hi
you th</w>
situ ations</w>
notic ed</w>
m es
ill u
ho st</w>
ch ess</w>
arti sts</w>
s ory</w>
ma x</w>
ju di
iel ts</w>
cri tic
vis ual</w>
poll ution</w>
individu als</w>
in c
h ong</w>
h am</w>
clear ly</w>
th om
se ts</w>
sco res</w>
pre ven
paralle l</w>
k ar</w>
ima g
en sure</w>
shi pping</w>
pi ano</w>
m g</w>
fic tional</w>
ec es</w>
contro versi
algorith ms</w>
tr o</w>
cr y
base ball</w>
up set</w>
so dium</w>
sig nal</w>
restri c
is s</w>
col la
ab led</w>
weal thy</w>
s chi
ri ver</w>
a str
re views</w>
n esses</w>
j an
go a</w>
de pic
bom b</w>
am p
sever e</w>
radi ation</w>
minu te</w>
mac book</w>
inspi ration</w>
che at</w>
celebri ty</w>
ac ne</w>
w is
th u
pi zz
percenti le</w>
flu id</w>
fin ger</w>
el ling</w>
av o
ar ri
air e</w>
tri cks</w>
mu hammad</w>
masturb ate</w>
log ically</w>
cont ext</w>
al len</w>
vi ously</w>
tren ds</w>
sin gh</w>
sen ding</w>
l ens</w>
ip l</w>
valu able</w>
suppor ting</w>
emp ty</w>
ch rom
c r</w>
bel ly</w>
vehic les</w>
super man</w>
rac ial</w>
r in
mem or
masturb ation</w>
celebri ties</w>
x es</w>
ste ph
spiri tual</w>
on e
conf used</w>
chic ago</w>
ch i</w>
bad ly</w>
b hu
v ar
j uni
ex ual</w>
en tation</w>
eg g</w>
vi l
sta ff</w>
net works</w>
in sp
heav en</w>
gro wn</w>
en ni
du ty</w>
communic ate</w>
beha ve</w>
willi am</w>
u te</w>
mach ines</w>
j aipur</w>
inter views</w>
ge ar</w>
com ics</w>
bat ch</w>
atom ic</w>
vo ting</w>
sugges tions</w>
pre pa
pas sion</w>
ob serv
li p
in c</w>
gujar at</w>
recogni ze</w>
ra tive</w>
justi fy</w>
fru it</w>
fore st</w>
confi dent</w>
arm a</w>
aff ord</w>
propag anda</w>
ner v
direc tor</w>
col ors</w>
awk ward</w>
ar ro
w ine</w>
sil ver</w>
re sts</w>
rail way</w>
i ve</w>
entrepreneu r</w>
divi ded</w>
c king</w>
ver ing</w>
tic kets</w>
stan ford</w>
s ore</w>
mi ch
lar ger</w>
succe ed</w>
sla very</w>
fi red</w>
do wn</w>
ab sor
w ering</w>
secon dary</w>
pro ven</w>
list ening</w>
every body</w>
destro yed</w>
br ought</w>
a er
proph et</w>
min d
lo ving</w>
jun e</w>
car to
chocol ate</w>
agre ement</w>
tox ic</w>
presid ential</w>
pe d
j ack</w>
h ack</w>
cryp to</w>
commun ism</w>
accid ent</w>
acc ent</w>
posi tions</w>
pharm ac
peri ods</w>
partic le</w>
o sc
m o</w>
im port</w>
ic h</w>
gi a</w>
win ning</w>
w hi
oper ations</w>
k em
hard ware</w>
com ic</w>
recomm end
particip ate</w>
n i</w>
mess enger</w>
et ers</w>
bre xit</w>
no body</w>
in al</w>
i on</w>
hel ping</w>
h em
deci sions</w>
con centr
a x</w>
vir gin
stu died</w>
sel fish</w>
per mit</w>
n ba</w>
b il
we ir
ta bles</w>
r ings</w>
perman ently</w>
load ed</w>
impro vement</w>
hol es</w>
ces sor</w>
ani mation</w>
alla h</w>
viet nam
ri l</w>
lu x
fac tory</w>
ci de</w>
che ated</w>
at o</w>
tran spor
re placed</w>
capac ity</w>
w ro
ri ous</w>
ordin ary</w>
com e
c c
bac teria</w>
agri culture</w>
p tions</w>
ha w
h et
fi ts</w>
ar rang
ap i</w>
afric ans</w>
ci a</w>
begin ners</w>
at en</w>
am bi
vietnam ese</w>
see k</w>
pub lished</w>
profes sion</w>
pro stitu
ic id
gen i
g f</w>
electr ons</w>
docum ent</w>
cr ash</w>
compu ting</w>
c ant</w>
y mp
sing ing</w>
se as</w>
de ep
ca ust</w>
any way</w>
al lies</w>
wi re
we ster
v ul
toi let</w>
sav ed</w>
ru b
ra j
po e
ou ts</w>
net working</w>
mus cles</w>
ma d
beli ef</w>
sci ences</w>
off line</w>
n cer
implemen ted</w>
gram mar</w>
disci pl
dat ory</w>
compla in</w>
be ach</w>
w w
th ail
thail and</w>
st aying</w>
ny c</w>
k ings</w>
concen tration</w>
sh ut</w>
sav ing</w>
on aire</w>
mexic an</w>
gol den</w>
choo sing</w>
ca ke</w>
y rs</w>
rif le</w>
ma ke
le e</w>
har dest</w>
e go</w>
bur ning</w>
au g
z en</w>
vic tim
plan es</w>
per mission</w>
musi cal</w>
mechan ism</w>
mar ch</w>
mang alore</w>
g em
con spir
autom atic</w>
appe ared</w>
on ing</w>
li cations</w>
holo caust</w>
h r
vic tim</w>
su ck</w>
smar ter</w>
quo te</w>
partic les</w>
grav it
do se</w>
dir ty</w>
desk top</w>
s ons</w>
li mit
ho sting</w>
h p</w>
bi polar</w>
bi ased</w>
ari a</w>
us age</w>
ular ity</w>
sur ge
pain ful</w>
p t
min ority</w>
m tech</w>
govern ments</w>
go ds</w>
fit ness</w>
f on
dise ases</w>
ch lor
ch en</w>
c end
strang er</w>
si ght</w>
mul ti</w>
i its</w>
h acking</w>
fac es</w>
cheap er</w>
urb an</w>
sump tion</w>
sca m</w>
op tim
manufac tu
fun ni
dis gu
w b
presid ency</w>
manufac tured</w>
he ads</w>
hab it
bi lities</w>
te e</w>
pow der</w>
over rated</w>
me th</w>
k m</w>
ira q</w>
bre ad</w>
b ts</w>
appe ar
al ed</w>
whe re
ve gan</w>
str ing</w>
provi der</w>
par am
ke ys</w>
ima gin
g i</w>
crypto currencies</w>
challeng e</w>
assa ult</w>
r bi</w>
oo th</w>
no ise</w>
fir ms</w>
b ble</w>
ag encies</w>
wi ki
u tionary</w>
tom or
suff icient</w>
g ly</w>
f uc
di ck</w>
tur ks</w>
naz is</w>
mar tial</w>
k a
fic ations</w>
cap tain</w>
al though</w>
typ ically</w>
pizz a</w>
fili pin
enem y</w>
en a</w>
u ae</w>
sub stitu
se ttle</w>
pro gress</w>
prepa red</w>
pre fer
ju ice</w>
angu lar</w>
tal ks</w>
s ans
mil es</w>
den y</w>
deb ate</w>
at titude</w>
windo w</w>
st ors</w>
some how</w>
sm all
silic on</w>
n ab
lon ely</w>
less ons</w>
hu l</w>
an k</w>
wro te</w>
vag ina</w>
li ft</w>
j ury</w>
incid ent</w>
ali en</w>
sla ves</w>
reg im
re sear
ra p</w>
pain ting</w>
p ills</w>
iri sh</w>
financi ally</w>
oper ation</w>
ncer t</w>
lef ti
juni or</w>
fra me</w>
f rac
ar rest
us eless</w>
stron gest</w>
rel ate</w>
ra ped</w>
may be</w>
h ated</w>
di str
defin ed</w>
chandi garh</w>
absolu te</w>
pro por
off ici
me tri
jo ke</w>
foun ded</w>
de bit</w>
bio technology</w>
worl d
n u</w>
n es
inde x</w>
hosp it
func tional</w>
elec tro
controversi al</w>
ad opt</w>
victim s</w>
u i</w>
hi v</w>
equ ality</w>
discrimin ation</w>
stru gg
nerv ous</w>
loo ked</w>
inter ior</w>
im mun
ev al</w>
che ster</w>
vit am
thro at</w>
sur roun
ro b
quali fy</w>
p ounds</w>
funni est</w>
frequ ently</w>
ans wering</w>
what ever</w>
v oc
tor onto</w>
th in</w>
su b</w>
po land</w>
p im
desi re</w>
a ws</w>
y a
politici an</w>
p ush
ob vious</w>
lead ership</w>
key board</w>
intro vert</w>
imag ine</w>
go ti
edi ting</w>
d ental</w>
th rones</w>
sta tic</w>
p k
o h</w>
inte rests</w>
info sys</w>
indone sian</w>
at oms</w>
z u
we igh
pro po
part ners</w>
p cm</w>
moun tain</w>
loo se</w>
evol ve</w>
cu tting</w>
behavi our</w>
ap s</w>
remo te</w>
princi ple</w>
ori z
lo t
co vered</w>
attrac tion</w>
air lines</w>
week ends</w>
war ming</w>
out put</w>
n n</w>
mem ories</w>
man datory</w>
lin ked</w>
kri sh
gu ard</w>
coun ter
c able</w>
y l</w>
trans lation</w>
techni que</w>
t our</w>
ste ve</w>
sla ve</w>
sil ent</w>
sc and
port fo
or tho
ignor ant</w>
ch e</w>
arch y</w>
ra ft</w>
jack son</w>
infin ite</w>
holi day</w>
fac ial</w>
enter tain
tu ition</w>
sno w</w>
priv acy</w>
ni e</w>
h d
cy ber</w>
cri tici
c ist</w>
bo w</w>
t le</w>
ra in
mar ath
geo graphy</w>
ema ils</w>
clu bs</w>
char ging</w>
celebr ate</w>
alter natives</w>
tran sport</w>
tomor row</w>
mon go
do r</w>
de struc
control led</w>
c and
se p
ra hul</w>
edi tion</w>
dec la
u tili
treat ments</w>
re turns</w>
protec ted</w>
o ther
min s</w>
f low
compon ents</w>
cho sen</w>
steph en</w>
ss b</w>
sh er
ex pl
e instein</w>
divi sion</w>
allo ws</w>
wi ves</w>
tai wan</w>
pro cessor</w>
po sting</w>
petro l</w>
pe dia</w>
hypo the
coun sel
ap ril</w>
soldi er</w>
ri s</w>
po is
low est</w>
in struc
i b</w>
emer gency</w>
be ar</w>
a stron
tane ously</w>
ta lity</w>
swim ming</w>
no v
i o
fundam ental</w>
for mal</w>
weir dest</w>
shou l
pay pal</w>
hat red</w>
es sive</w>
ear lier</w>
ban g</w>
an istan</w>
a res</w>
a qu
wal let</w>
w o
re medi
ho ly</w>
gressi on</w>
diver sity</w>
d or
carri er</w>
aero space</w>
ab and
wor ship</w>
schi z
sam ple</w>
reti rement</w>
ren ce</w>
over seas</w>
mc u</w>
fl ame</w>
feren ces</w>
ent ure</w>
d al
a ad
pro to
por ts</w>
m ally</w>
b f</w>
auth en
secre tly</w>
mas sive</w>
logi sts</w>
li sts</w>
ill a</w>
g ord
eng ines</w>
descri bed</w>
war m</w>
struc tures</w>
po kem
man ual</w>
g ang
ex port</w>
es ome</w>
e sts</w>
comp ound</w>
atmo sphere</w>
associ ate</w>
w ww</w>
ur ing</w>
tri angle</w>
to o</w>
sol o</w>
se em
mechan ics</w>
lead s</w>
clo s
che ese</w>
bu m</w>
astron au
vis h
su icid
ran king</w>
pe ts</w>
ol ymp
h oriz
enti ally</w>
ear th
ton gue</w>
ra ised</w>
poli tically</w>
ob jec
ex trac
cop per</w>
affili ate</w>
thous ands</w>
thom as</w>
secon ds</w>
p ump</w>
p air</w>
ma li
lon gest</w>
lin gu
ini tial</w>
e dit</w>
cat al
al li
aff airs</w>
recor ds</w>
pe p
ol s</w>
make up</w>
g age</w>
be er</w>
wire less</w>
sp ent</w>
ro gen</w>
reg ularly</w>
gr and</w>
consum er</w>
conspir acy</w>
con qu
j ong</w>
in ch</w>
deposi t</w>
cou sin</w>
att or
pokem on</w>
plat forms</w>
or ange</w>
o logical</w>
he al</w>
geno cide</w>
franch ise</w>
frame work</w>
coo l
ca p</w>
ap h
adv oc
su dden</w>
mon itor</w>
jo ined</w>
crimin als</w>
cre a
cham pi
bl oo
arrest ed</w>
z a</w>
tren d</w>
tre ating</w>
str ate</w>
ro cket</w>
recruit ment</w>
programm e</w>
ne ural</w>
horri ble</w>
gord on</w>
compul sory</w>
asi de</w>
y an</w>
ver sa</w>
sum mary</w>
par ti
hom eless</w>
g it
en cing</w>
cla t</w>
char les</w>
afgh anistan</w>
ten nis</w>
te ens</w>
palest ine</w>
mill er</w>
medi eval</w>
ir ri
hou sing</w>
h ad
fic i
asp ir
str ug
s au
portfo lio</w>
for give</w>
ch rome</w>
bro thers</w>
bo red</w>
att ached</w>
ag ents</w>
strug gle</w>
ne ther
man ga</w>
eff ort</w>
us b</w>
tex t
spec tr
li sted</w>
is ro</w>
hol der</w>
h acks</w>
integr ate</w>
in put</w>
foreig ner</w>
fil ter</w>
experim ent</w>
e ing</w>
be ef</w>
y l
tan cy</w>
stri ke</w>
sociop ath</w>
sc al
s ni
o t
immigr ant</w>
han g</w>
femin ist</w>
exist ed</w>
ay ur
won der</w>
vec tor</w>
ti a</w>
tal ent</w>
sm ith</w>
pi eces</w>
p ation</w>
j ump</w>
i le</w>
e dge</w>
char t</w>
b our</w>
wor ry</w>
veget arian</w>
touri sm</w>
sub mit</w>
n ick
ing ing</w>
dis abled</w>
can cel</w>
ag gressive</w>
photo graph
off ensive</w>
k at
domin ant</w>
de tect</w>
consul ting</w>
calcul us</w>
t end
st ack</w>
responsi bility</w>
princi ples</w>
pers ons</w>
om et
n fl</w>
intellec tual</w>
el ler</w>
bul let</w>
an der</w>
ac qui
t um
sa ur
ren tal</w>
r are</w>
pres ence</w>
foun der</w>
ep y</w>
bin ary</w>
zer land</w>
x i</w>
w a</w>
un comfortable</w>
t ful</w>
remedi es</w>
ra m
pre ferred</w>
ol dest</w>
nor mally</w>
investi gation</w>
es si
es el</w>
dro pped</w>
dec ember</w>
cont acts</w>
arro g
ni ght
e ti
co w</w>
ar i</w>
up votes</w>
sc oring</w>
ri di
in er</w>
gg ed</w>
freel ance</w>
con sume</w>
intern ships</w>
inf ection</w>
exper t</w>
dis cover</w>
consci ousness</w>
tor ial</w>
t x</w>
t ance</w>
off ended</w>
d x</w>
b n
b et</w>
ayur ve
auth ority</w>
an ism</w>
all ed</w>
vil le</w>
tun e</w>
swit zerland</w>
sav ings</w>
rac es</w>
mon o
br ac
auti stic</w>
appear ance</w>
an ia</w>
ab les</w>
wash ing</w>
ul es</w>
pe ter</w>
krish na</w>
f ell</w>
e rec
cam p</w>
c d</w>
boo st</w>
b ai
ans wered</w>
secu lar</w>
entertain ment</w>
corpor ation</w>
comp ati
bu ff
bran ches</w>
ass as
ta il</w>
peac eful</w>
p ad
i ties</w>
depend ent</w>
cal cu
bre ed</w>
b ca</w>
automo bile</w>
ac com
wiki pedia</w>
vari able</w>
ti fy</w>
some where</w>
la y
episo des</w>
du tch</w>
consul tant</w>
collap se</w>
clin ical</w>
bo ttle</w>
appro xim
s ession</w>
jour ney</w>
homo sexuality</w>
gho st</w>
el e
de aling</w>
co ach</w>
ang e
v eter
u lation</w>
than k</w>
tel ug
op al</w>
newspap er</w>
it em</w>
ho we
der iv
cu te</w>
blo gs</w>
b ite</w>
ali ties</w>
small est</w>
rupe es</w>
pas sive</w>
ob jective</w>
nether lands</w>
ne goti
it ely</w>
hor se</w>
g ar</w>
fi gu
cr ying</w>
ann oun
aff ects</w>
absolu tely</w>
y r</w>
mis sed</w>
medic ation</w>
lau gh</w>
ip ad</w>
ad hd</w>
tr uck</w>
tex ts</w>
s oun
pun jab</w>
predic t</w>
pi er
min orities</w>
lak hs</w>
la yer</w>
howe ver</w>
di esel</w>
def ence</w>
de duc
ber ry</w>
ord an</w>
motiv ate</w>
las er</w>
hypo cri
clean ing</w>
ad mitted</w>
re source</w>
pri son
pressi ve</w>
k ick</w>
it er</w>
d un
classi c</w>
care ers</w>
brow ser</w>
a sion</w>
whe el</w>
ste al</w>
s and</w>
re placement</w>
pan ic</w>
min im
lap tops</w>
i ved</w>
fac ilities</w>
et es</w>
dynam ics</w>
cogni tive</w>
ad ed</w>
ad am</w>
vac u
ul timate</w>
stop s</w>
ste am</w>
sho wer</w>
ser ving</w>
prof ess
pin k</w>
oper ate</w>
gre y</w>
comb ination</w>
bi as</w>
air line</w>
symbo l</w>
susta in
rich ard</w>
iv y</w>
i ps</w>
bre asts</w>
under grad</w>
ti lity</w>
st in
probab ly</w>
j an</w>
inte l</w>
fal ls</w>
ec raft</w>
din ner</w>
democra t</w>
b pd</w>
angel es</w>
transi tion</w>
ter ies</w>
simul taneously</w>
se mi</w>
pre li
out come</w>
gree ks</w>
ano s</w>
addic ted</w>
sto red</w>
rou te</w>
resid ent</w>
ex pression</w>
enter pri
dec reas
comm ission</w>
re ma
re ject</w>
poe try</w>
perf ec
p c
integr ated</w>
ic als</w>
fu sion</w>
dynam ic</w>
z ab
ti e</w>
s p</w>
od d</w>
mi x
i ed</w>
her it
fi fa</w>
chi ef</w>
y o</w>
ukra ine</w>
tem ple</w>
ser ial</w>
manag ed</w>
gd p</w>
di ty</w>
comman d</w>
ash es</w>
acceler ation</w>
th y
table t</w>
pl as
om ag
hy bri
hur ting</w>
digi t</w>
comp en
bh u</w>
at ar</w>
ar a</w>
trans mission</w>
too th</w>
t ating</w>
si onal</w>
recei ving</w>
purpo ses</w>
kore ans</w>
copy right</w>
boo k
us d</w>
spi der</w>
ol es
ma tically</w>
bus y</w>
qu a
mo squ
mar t</w>
log o</w>
k v
in gre
vo ters</w>
r and
on g
mo ck</w>
ma ster
home made</w>
dre sses</w>
collec tion</w>
ab o
skin ny</w>
op en
n ate</w>
invest ments</w>
f illing</w>
eng e</w>
cost ume</w>
clo ser</w>
ti ans</w>
so le</w>
repu tation</w>
r ating</w>
profession als</w>
h ates</w>
dr unk</w>
ay a</w>
ali n</w>
sto len</w>
sor ry</w>
provi ding</w>
p an</w>
ob li
mean ing
kit chen</w>
ju ly</w>
ingre di
f b</w>
basi cs</w>
b ass
al bum</w>
world wide</w>
week end</w>
veri fication</w>
r he
ma inten
lo ans</w>
liter ally</w>
it ation</w>
descri ption</w>
ca st
av engers</w>
ad ding</w>
wat ched</w>
uni ts</w>
telug u</w>
re fri
my th
me tro</w>
hur ri
con sent</w>
ch er
vi n</w>
tri al</w>
the at
sh ared</w>
meas ures</w>
house hold</w>
exp enses</w>
decla red</w>
conver ted</w>
bra in
w et</w>
shoo tings</w>
n one</w>
ide ology</w>
fru its</w>
fli ghts</w>
chron ic</w>
b ell</w>
ar c
tic a</w>
se tu
or acle</w>
neutr al</w>
k o</w>
fra ud</w>
foc used</w>
sc op
profess ors</w>
p su</w>
mu eller</w>
mor t
kid ney</w>
gre en
divi de</w>
d am</w>
canadi ans</w>
ax is</w>
ann ual</w>
ra b
lic s</w>
institu tions</w>
hor ror</w>
he art
g ul
ex pi
classi fied</w>
bed ded</w>
att le</w>
addi tional</w>
v i</w>
scholar ships</w>
por ted</w>
other wise</w>
off ering</w>
n ings</w>
le tting</w>
joh n
in ts</w>
et ary</w>
enter ing</w>
assas sin
t ask</w>
s tim
re tri
po sted</w>
onom y</w>
nur sing</w>
mainten ance</w>
ma ps</w>
jo int</w>
ab used</w>
a ster</w>
up grade</w>
under rated</w>
swi ft</w>
se as
r ural</w>
oph ren
lo ws</w>
hom es</w>
estab lish</w>
cur ve</w>
my ster
lan ding</w>
inte gration</w>
h ra</w>
gravit ational</w>
f es
eli zab
con vic
audi ence</w>
ri sing</w>
ow ned</w>
molecu lar</w>
infra structure</w>
gi ant</w>
encou rage</w>
circum stances</w>
ash amed</w>
arg ent
y cle</w>
w age</w>
s elec
refri ger
po t</w>
per forming</w>
oo p</w>
li mits</w>
la dies</w>
j on</w>
h av
every where</w>
electr omag
suicid al</w>
sh ado
schiz ophren
ridi cul
ri ck</w>
pil ani</w>
p ants</w>
origin ate</w>
or ation</w>
manag ers</w>
lg bt</w>
hurri can
h il
diab etes</w>
compar ison</w>
co des</w>
to ward</w>
tit les</w>
re set</w>
re new
radi us</w>
neu tra
in o
ib ps</w>
dish es</w>
con fir
bu tt</w>
bi e</w>
beng ali</w>
ar ding</w>
sequ ence</w>
mer it</w>
f ought</w>
em bedded</w>
conduc ted</w>
c on</w>
break up</w>
b en</w>
a ism</w>
trans late</w>
ther mal</w>
tat too</w>
t elec
secre ts</w>
robo tics</w>
red mi</w>
re am</w>
poin ted</w>
pi lots</w>
phen om
ly rics</w>
dic t
cry st
cor n</w>
co in
s low
ro ads</w>
pen sion</w>
ko ta</w>
inter medi
hi red</w>
g ates</w>
flow ers</w>
dis orders</w>
vel lore</w>
sh ak
schem e</w>
press ing</w>
per ate</w>
inter act</w>
in r</w>
in ju
her oes</w>
he avi
h is
dra ma</w>
bul lying</w>
ur u</w>
ta bo
st ood</w>
na sty</w>
mom ents</w>
mat ters</w>
kill er</w>
com po
bi har</w>
bag s</w>
al lowing</w>
ad missions</w>
volun te
re actions</w>
r ors</w>
cl er
c us
ay ed</w>
al ge
a e
th r
ta g</w>
ro y
re fer
quali fication</w>
ma inst
la bel
jud aism</w>
j in
harass ment</w>
fin ished</w>
cer tified</w>
boo t</w>
asse mb
appe ars</w>
robo t</w>
resp ec
mo ves</w>
fac ulty</w>
dis charge</w>
cen tri
w rest
ver bal</w>
u ri
transpor tation</w>
setu p</w>
rela tively</w>
po le</w>
in er
ex tension</w>
discus s</w>
diffic ulty</w>
con tains</w>
v ements</w>
sup pose</w>
sna ke</w>
p us
migr ate</w>
li ver</w>
inve stor</w>
inv ade</w>
incre ases</w>
graph ical</w>
con sumption</w>
ver ted</w>
ve gas</w>
um a</w>
sub stance</w>
robo ts</w>
process es</w>
magaz ine</w>
j ordan</w>
e ties</w>
cop s</w>
anim ated</w>
v an</w>
se mi
pun jab
nor way</w>
lo y
inf o</w>
hon ey</w>
f arm</w>
dec line</w>
cur ri
compe te</w>
common ly</w>
comm unities</w>
basi cally</w>
al em</w>
sans kri
po d
lic ated</w>
asse ts</w>
spiri t</w>
prin ting</w>
pay ments</w>
m ble</w>
legi timate</w>
k le</w>
justi fied</w>
jer us
geni us</w>
e jac
accep ting</w>
ver ts</w>
v ap
uni form</w>
sug ge
s mile</w>
recor ding</w>
pro gressive</w>
pat rio
ma h
les bian</w>
in secure</w>
fresh ers</w>
fail ing</w>
equ ations</w>
effici ency</w>
d less</w>
d ay
coll ect</w>
ap point
y u
u c</w>
tr ans</w>
swe et</w>
shop s</w>
or bit</w>
mainst ream</w>
la ke</w>
je w</w>
fes tiv
eligi bility</w>
ec ules</w>
ec om
att acked</w>
appro ved</w>
suppor ted</w>
requi res</w>
quanti ty</w>
la bor</w>
je di</w>
i ous</w>
go ku</w>
elizab eth</w>
e bay</w>
d ell</w>
con tra
an th
tin der</w>
ti p</w>
son y</w>
satis fied</w>
reali se</w>
poli sh</w>
mar tin</w>
k ru
jerus alem</w>
intro duce</w>
inst alled</w>
cap itali
bo xing</w>
a head</w>
tra ined</w>
struc tural</w>
re moving</w>
per formed</w>
loo p</w>
life time</w>
g ent</w>
embarrass ing</w>
ci ans</w>
appe aring</w>
th or
st alin</w>
st ab
require ment</w>
reason ing</w>
psychiat ri
ob e</w>
je wel
imp lications</w>
clear ing</w>
bo tt
bo ston</w>
ai m</w>
aff air</w>
adop ted</w>
ab ra
ver sus</w>
tt es</w>
t ants</w>
st an</w>
ren ess</w>
mar rying</w>
le ge</w>
k ine
el le</w>
cy lin
co al</w>
clo ck</w>
c ss</w>
b ones</w>
vacu um</w>
than ks</w>
th or</w>
san c
num er
mon y</w>
it jee</w>
h im
fi f
f ate</w>
evol ved</w>
eth ics</w>
e k</w>
e ars</w>
dest ination</w>
bl ings</w>
att end
assemb ly</w>
sh ell</w>
pen alty</w>
m ask</w>
j im
inf lation</w>
h acked</w>
fi er</w>
don ate</w>
calcul ated</w>
att ending</w>
adverti se
activ ate</w>
masturb ating</w>
loc ked</w>
inv asion</w>
h o</w>
ex clu
drin ks</w>
d ar</w>
attor ney</w>
stri ct</w>
so ap</w>
sanskri t</w>
reco very</w>
par li
na ils</w>
min ds</w>
in ches</w>
ha wai
earth qua
coun cil</w>
ath an</w>
am ent</w>
a wa
v ad
syn the
st ones</w>
ome try</w>
ni ft</w>
isra eli
fin gers</w>
dep end</w>
deli ver</w>
bit coins</w>
advis able</w>
tro p
th ir
t one</w>
surge on</w>
satelli te</w>
regim e</w>
recogni tion</w>
j um
inven tion</w>
h ons</w>
dama ged</w>
bon ds</w>
ar ity</w>
vege tables</w>
tar get
slow ly</w>
ri er</w>
repor ts</w>
psycho logist</w>
pk art</w>
min i
jo se
introduc ed</w>
institu tion</w>
guar an
deta il</w>
bi o</w>
b umps</w>
rev enge</w>
pro vin
on ia</w>
ne arly</w>
m d</w>
it o</w>
h all</w>
g ary</w>
distri ct</w>
differenti ate</w>
cy cl
com position</w>
com ed
bo at</w>
ath ers</w>
v o</w>
un healthy</w>
te sted</w>
si blings</w>
sa tions</w>
o ven</w>
influ ential</w>
cool est</w>
cho se</w>
capit alism</w>
bre ath</w>
bar ack</w>
tor ies</w>
sper m</w>
shor t
less on</w>
g el</w>
f at
dre aming</w>
cu rious</w>
comed k</w>
ate ful</w>
ag end
th ick</w>
th anos</w>
saf ely</w>
pupp y</w>
ne tic</w>
instrum ent</w>
indic ate</w>
in car
h ul
fun ded</w>
fli pkart</w>
em a</w>
chec king</w>
cal ci
break fast</w>
ble eding</w>
v c</w>
t s
publish ing</w>
pla ys</w>
pen ding</w>
pay tm</w>
p ays</w>
m ca</w>
kv py</w>
et a</w>
en h
b har
ah med
sent ences</w>
sc ar
pre tend</w>
mol ecules</w>
irani an</w>
in san
ic a</w>
hy dr
elimin ate</w>
dra wn</w>
cu be</w>
comfor t</w>
camer as</w>
sp y</w>
ren tly</w>
perce ption</w>
partic ularly</w>
org as
missi le</w>
est he
entrepreneur s</w>
do x</w>
ar rest</w>
x y</w>
wel fare</w>
w ings</w>
r ss</w>
ori de</w>
ex po
ex cell
cu m</w>
cor relation</w>
colum bia</w>
air plane</w>
ahmed abad</w>
sp in
rou ter</w>
ne i
motor cycle</w>
m b</w>
loc ate</w>
kni fe</w>
intermedi ate</w>
h ill</w>
to wer</w>
theore tical</w>
p n</w>
min ded</w>
matri x</w>
jo kes</w>
im peri
geor gia</w>
ff s</w>
f ted</w>
en for
dimen sions</w>
concentr ate</w>
cal m</w>
at o
un employment</w>
tac tics</w>
sur name</w>
quali fications</w>
pl ates</w>
min i</w>
luc know</w>
can on</w>
boo king</w>
ash ing</w>
sur vey</w>
s ligh
run s</w>
prac ti
m ood</w>
lak h</w>
hon est
ho t
en ess</w>
contribu tions</w>
claim ed</w>
chap ters</w>
bor der
ap titude</w>
visi ted</w>
the ast</w>
see ds</w>
ro se</w>
po wered</w>
pa int
p it</w>
g as
emp athy</w>
el and</w>
d ani
cigare ttes</w>
bu tter</w>
an na</w>
sty les</w>
pop ularity</w>
pleas ure</w>
nit rogen</w>
met als</w>
i zation</w>
homo sexual</w>
gener ator</w>
d as</w>
com pre
col li
bus h</w>
braz ili
acqu ire</w>
war ri
syri an</w>
se ven</w>
privi lege</w>
premi um</w>
pit ch</w>
ind ore</w>
i iser</w>
dy s
be ard</w>
with draw</w>
tin y</w>
see king</w>
pu ts</w>
po ems</w>
pe e</w>
p ir
ni k
li on</w>
infer ior</w>
in k</w>
cent ure</w>
wat ches</w>
tradi tions</w>
ther mo
p ple</w>
mer cur
mass age</w>
is ol
fel low</w>
ex clud
dar k
can nab
at tribu
ac centure</w>
ve g
v r</w>
soci ology</w>
s wal
lo ver</w>
ll b</w>
k ic
holi days</w>
gen e</w>
g ated</w>
co ck
chap ter</w>
c pu</w>
avo i
trans action</w>
su its</w>
strang ers</w>
spectr um</w>
sal es
programm ers</w>
p ill</w>
op timi
on ist</w>
mercur y</w>
li ps</w>
lan ka</w>
hol ders</w>
h at</w>
dec ades</w>
con tr
bo t</w>
and ed</w>
survi val</w>
pro b
pharm acy</w>
notific ation</w>
mi a</w>
impro ving</w>
g au
en der</w>
ec lip
distingu ishes</w>
compati ble</w>
b ills</w>
per sian</w>
patter ns</w>
organis ms</w>
main ly</w>
journ alism</w>
conven tional</w>
c ers</w>
bre aks</w>
al um
aff ecting</w>
v as
portu gu
or a</w>
measu red</w>
mat ches</w>
lot tery</w>
le ep</w>
fe ver</w>
fe ed
el a</w>
buil dings</w>
arrog ant</w>
wal ker</w>
tra ins</w>
sau ce</w>
saf est</w>
organis ation</w>
op o
lux ury</w>
in ity</w>
f lower</w>
eli te</w>
contribu tion</w>
con clu
b ak
touri sts</w>
t aller</w>
perfec tly</w>
mon it
jud g
hospit als</w>
fi es</w>
con tain
there um</w>
reg ard</w>
portugu ese</w>
clic k</w>
asi s</w>
am p</w>
al uru</w>
vitam in</w>
sp in</w>
se g
remo val</w>
pro test</w>
palestini an</w>
mou se</w>
m t</w>
lun ch</w>
it es</w>
fav or</w>
do t</w>
critic ism</w>
conver sion</w>
ce re
bul ly</w>
ac cess
v or</w>
ter ing</w>
s ors</w>
s now
re y</w>
re fund</w>
preli ms</w>
op ened</w>
kne e</w>
htt ps</w>
head phones</w>
f all
e thereum</w>
dri ven</w>
contin ent</w>
bel on
b t
anal o
ti ous</w>
serv ed</w>
p aci
j up
gar den</w>
em per
di al
ca u
c v</w>
buddh ism</w>
bra ve</w>
bel t</w>
app a
an thro
a uc
z z</w>
s ome</w>
ra ja
pl u
p ad</w>
hur ts</w>
g lu
e ste
desig ns</w>
defin itely</w>
cu ts</w>
coun ty</w>
con temporary</w>
co ast</w>
car di
bri ght</w>
apo logi
am ity</w>
singap ore
scre en
o be
myth ology</w>
inter ven
in ary</w>
g all
eng age</w>
enem ies</w>
buc ks</w>
bis exual</w>
au stri
and re
accom mo
ven e
stat ements</w>
sin s</w>
sex ist</w>
resid ential</w>
p assi
new ly</w>
mp h</w>
mo thers</w>
mill enni
law yers</w>
ip cc</w>
in su
f ai
ex t
deep ly</w>
d an</w>
you tu
virgin ity</w>
thi er</w>
recor ded</w>
ra ising</w>
l um
k ann
ex ten
dang er</w>
alph ab
al t</w>
ab s</w>
a us
work place</w>
we en</w>
sur ve
suppor ts</w>
rand om
radi o
r ant</w>
o tic</w>
mor ally</w>
farm ers</w>
es sions</w>
dis appear</w>
dar th</w>
comp ounds</w>
ag ar</w>
vol can
vi s</w>
tri ck</w>
si zed</w>
shi va</w>
regi onal</w>
reduc ed</w>
leg is
is lands</w>
ignor ing</w>
ib m</w>
dra ft</w>
char ger</w>
b ars</w>
as leep</w>
an ne</w>
alph a</w>
sex y</w>
scen es</w>
ru in</w>
inten tionally</w>
con ference</w>
awa reness</w>
achiev ements</w>
ul ties</w>
tro ll</w>
tre k</w>
repor ted</w>
qui et</w>
mort gage</w>
igno u</w>
ho b
f our
en z
e c</w>
e aten</w>
d ur
comp licated</w>
cho ices</w>
cannab is</w>
bachel ors</w>
as per
wis dom</w>
ta y
presid ents</w>
li est</w>
inc est</w>
dang ers</w>
c fa</w>
back up</w>
aw esome</w>
z oo
trac king</w>
me et
jus tin</w>
j am</w>
bu bble</w>
beng aluru</w>
aug ust</w>
alex ander</w>
agend a</w>
un usual</w>
sustain able</w>
so da</w>
se ed</w>
rest ore</w>
pri ze</w>
or ph
nation alism</w>
m oo
log in</w>
le gen
je ans</w>
ingredi ents</w>
in jury</w>
gi fts</w>
expan sion</w>
el ev
e a</w>
distribu ted</w>
devi l</w>
be am</w>
bal an
u ary</w>
trans former</w>
pri de</w>
presen tation</w>
dec l
correc tly</w>
cle ared</w>
bat teries</w>
asp ect</w>
applic able</w>
app ed</w>
wor th
sul ph
satur n</w>
pack ages</w>
le um</w>
i x</w>
cam bridge</w>
calci um</w>
bo ther</w>
au t
acc used</w>
y ard</w>
tr e</w>
sq rt</w>
pat ent</w>
micro wave</w>
m ess</w>
li p</w>
fli r
conf ron
athi c</w>
ad o</w>
techno logical</w>
roo ts</w>
rom ance</w>
my th</w>
l uck</w>
inter vie
inter course</w>
inst ant</w>
employ ers</w>
du b
c i</w>
brah mins</w>
where as</w>
voc ab
pi x
nutri tion</w>
nei ther</w>
lif ting</w>
le ment</w>
g ta</w>
farm ing</w>
extin ct</w>
exp and</w>
e tic</w>
bu gs</w>
border line</w>
appreci ate</w>
ance stors</w>
z om
st a</w>
scot land</w>
sc an
rela tives</w>
purch ased</w>
pre sti
mar ines</w>
ma hab
m ps</w>
jose ph</w>
inter n</w>
hon da</w>
go s</w>
enterpri se</w>
en coun
d ney</w>
as sign
tt a</w>
t asks</w>
strang est</w>
high lights</w>
fur nit
deser t</w>
be dro
appoint ment</w>
p ting</w>
g ins</w>
for um</w>
bh opal</w>
um es</w>
recogni zed</w>
neigh b
kin s</w>
evol utionary</w>
es cor
equ ally</w>
construc t</w>
ch ant</w>
br inging</w>
astro logy</w>
wa sting</w>
u de</w>
supple ments</w>
pre ference</w>
port al</w>
lic al</w>
legi t</w>
invol ve</w>
interpre t</w>
fac ility</w>
ex posed</w>
e ous</w>
cru el</w>
col or
ban kru
ar ch</w>
ap pointed</w>
wol f</w>
radi cal</w>
quor an</w>
peop les</w>
organi zed</w>
max im
man dar
control ler</w>
clos est</w>
cl ou
bom bay</w>
bal i</w>
alge bra</w>
adv ise</w>
wal ls</w>
ul ary</w>
termin al</w>
stop ping</w>
soci eties</w>
soci alism</w>
si mu
s ap
n l
n g</w>
j ay</w>
h m</w>
fro zen</w>
desig ners</w>
d tu</w>
bour ne</w>
at ro
ag gre
sligh tly</w>
repor ting</w>
reali zed</w>
propo sal</w>
ortho dox</w>
le ather</w>
k it</w>
gra ms</w>
e ag
ci s</w>
bar cel
b m
ac et
x box</w>
wei gh</w>
re serve</w>
raja st
pronoun ce</w>
jan uary</w>
j ones</w>
innov ative</w>
incre di
in ated</w>
ha z
feed back</w>
et te</w>
co p</w>
ca uc
tou gh
substitu te</w>
rol ling</w>
ri gh
regar ds</w>
re jection</w>
p gd
no de</w>
n cr</w>
mi ke</w>
mem ori
lu ke</w>
k in</w>
inter action</w>
insi st</w>
i de</w>
hon ours</w>
hen ry</w>
discipl ine</w>
crea tivity</w>
be an</w>
barcel ona</w>
at u
arrang ed</w>
appro val</w>
aad har</w>
v pn</w>
swe dish</w>
stro ke</w>
par king</w>
nov ember</w>
la tive</w>
cru ise</w>
control ling</w>
b ound</w>
ai res</w>
wn s</w>
tan ks</w>
ste aling</w>
reti re</w>
mo to</w>
ku mar</w>
kann ada</w>
jup iter</w>
gr y</w>
ga ining</w>
arm en
appe al</w>
air tel</w>
ad obe</w>
tem ber</w>
sep tember</w>
re solution</w>
produc ing</w>
ol er
mandar in</w>
m ount</w>
la bel</w>
israeli s</w>
indone sians</w>
hun ting</w>
hun ter</w>
he ating</w>
fri ction</w>
fe eding</w>
bo dy
b ds</w>
an al</w>
shar p</w>
s ely</w>
ra ys</w>
ph y</w>
ir a</w>
inv ent</w>
insul t</w>
ho o</w>
este em</w>
econom ically</w>
constitu tional</w>
bur g</w>
ang les</w>
ser t</w>
od ds</w>
mahab har
lat ely</w>
la bour</w>
do ors</w>
claim ing</w>
attem pts</w>
vocab ulary</w>
sik hs</w>
sand ers</w>
portu gal</w>
plan ned</w>
p in</w>
o tt
n ail</w>
mic ro</w>
m l
in ely</w>
gen ders</w>
enh ance</w>
defin ing</w>
d ali
connec tions</w>
cancel led</w>
bl ed</w>
vi c</w>
shi el
sh an
regi ons</w>
prin ter</w>
practic ing</w>
ou ter</w>
le an</w>
int oler
hun gry</w>
habit at</w>
gol d
ele ph
dr one</w>
at m</w>
ach ment</w>
wit n
softw ares</w>
responsi bilities</w>
qu ad
promo tion</w>
pi e</w>
p s
org ans</w>
nat o</w>
k ia</w>
j r</w>
idi ty</w>
guil t</w>
gen re</w>
distingu ish</w>
continu ous</w>
cas ual</w>
c nn</w>
breath ing</w>
villa ge</w>
vene zu
sec ts</w>
oc d</w>
introduc tion</w>
g ad
fin ger
evalu ate</w>
en counter</w>
decl are</w>
clo sing</w>
ca sting</w>
ba king</w>
wal mart</w>
w ay
thous and</w>
ter ror</w>
s word</w>
ridicul ous</w>
punjab i</w>
proce du
or dered</w>
neigh bor</w>
jour nal</w>
instrum ents</w>
furnit ure</w>
expec tations</w>
eclip se</w>
diam ond</w>
curri cul
ch ers</w>
bul k</w>
believ ing</w>
b low</w>
anonym ously</w>
t we
strugg ling</w>
shoul der</w>
s ach
hus bands</w>
f ed</w>
eng ag
dep th</w>
ber lin</w>
ari ans</w>
ar gue</w>
adverti se</w>
o in</w>
nur se</w>
infor ma
hack er</w>
fair ly</w>
aw ard</w>
amp li
ai red</w>
st ations</w>
purch asing</w>
procedu res</w>
pro secu
pharmac eu
new ton</w>
n ra</w>
mathema tici
marri ages</w>
k am
immigr ate</w>
i fy</w>
gradu ated</w>
et ooth</w>
e able</w>
di scre
come dy</w>
car ing</w>
boo t
bedro om</w>
zi est</w>
ww e</w>
transp l
tex ting</w>
syn thesis</w>
sy dney</w>
si es</w>
ox ford</w>
ov o</w>
ma ker</w>
m nc</w>
m ics</w>
h u</w>
gem ini</w>
fab ric</w>
excell ent</w>
dec or
co con
class room</w>
bo arding</w>
blu etooth</w>
bath room</w>
b b
tori als</w>
tiz ation</w>
tion er</w>
terri tory</w>
stre ssed</w>
sen sor</w>
sche dul
man ner</w>
in ver
fore x</w>
des cend
conver sations</w>
con dem
un limited</w>
table ts</w>
ro om
par ag
org an</w>
log an</w>
hurrican e</w>
fin ds</w>
fe asi
exc use</w>
di an</w>
b and
ani um</w>
z uc
ya hoo</w>
t our
sw ol
stre ets</w>
star k</w>
sha ke</w>
reduc ing</w>
mind set</w>
memor able</w>
maj ors</w>
ic o</w>
figu res</w>
dec ade</w>
ye ster
wil d
wester ners</w>
vo cal</w>
the m</w>
swol len</w>
stre aming</w>
rajast han</w>
pa ste</w>
neutra lity</w>
gradu ating</w>
destro ying</w>
carto on</w>
bor ders</w>
archit ect</w>
accep tance</w>
thro wn</w>
separ ated</w>
pun ish</w>
per su
li king</w>
len ovo</w>
irani ans</w>
in fl
freelan cer</w>
el ine</w>
down loading</w>
dis k</w>
chri s</w>
ang el</w>
trol ls</w>
shado w</w>
sear ching</w>
re l</w>
per ks</w>
p se
n ou
mir i</w>
is ms</w>
innov ation</w>
grand mother</w>
gr ant</w>
ga ined</w>
g ly
contra dic
con ci
cam ps</w>
bow l</w>
bet a</w>
wh el
veri fy</w>
ven us</w>
ve re
sk ip</w>
schizophren ia</w>
s ms</w>
rela tivity</w>
random ly</w>
op pose</w>
op enly</w>
om an</w>
oc ca
limit ations</w>
im pression</w>
fresh man</w>
f is
du ration</w>
depic ted</w>
car ol
bangla des
b at</w>
an them</w>
al do</w>
yester day</w>
ul tra</w>
typ ing</w>
tay lor</w>
super vis
sil ly</w>
rema ining</w>
pu er
provi ders</w>
la bs</w>
gener ations</w>
gene tically</w>
eth nic
diagno sis</w>
de dic
bun tu</w>
athe ism</w>
vi able</w>
ur ge</w>
un like</w>
sign als</w>
sho ck</w>
sa fer</w>
s anta</w>
s ali
r ing
petro leum</w>
or ship</w>
mexic ans</w>
mani pu
gh ters</w>
ga tions</w>
g ical</w>
emper or</w>
dep lo
bre w</w>
bel gi
and hra</w>
strate gic</w>
shir ts</w>
s ai
rhe a</w>
pro fits</w>
pan el</w>
oo s</w>
o ta</w>
necess arily</w>
n t
n in
mer ce</w>
mark et
ig an</w>
fal len</w>
cre w</w>
cocon ut</w>
argent ina</w>
wh oles
un d
tru sted</w>
th ai</w>
ster one</w>
spon sor</w>
se c</w>
re son
paci fic</w>
o ch
n est</w>
lic ate</w>
inter face</w>
in spec
hi ke</w>
hi ding</w>
gener ated</w>
g mat</w>
enti rely</w>
electromag netic</w>
disco very</w>
car ried</w>
auth ors</w>
to ys</w>
regar dless</w>
re ver
peri o
pass enger</w>
n an
moder ation</w>
mo vements</w>
len ses</w>
jer sey</w>
integr al</w>
im mor
ho w
go p</w>
g an
fan ta
ethnic ity</w>
ecom merce</w>
dre ssing</w>
dis aster</w>
de als</w>
d der</w>
chem icals</w>
b ath</w>
wi s</w>
wan na</w>
u buntu</w>
se l</w>
pul led</w>
puer to</w>
pl ug
multi p
mass ac
m n
kash miri</w>
ine e</w>
enfor cement</w>
en ty</w>
civili ans</w>
at er
wash ed</w>
un fair</w>
tra uma</w>
sub si
sk illed</w>
repe at</w>
re ached</w>
mor oc
mis conce
man chester</w>
lo ween</w>
il ers</w>
hal loween</w>
dis agree</w>
confi gu
bo x
at ers</w>
agri cultural</w>
ag ues</w>
th us</w>
sim pl
si on
re e</w>
pro posed</w>
ne o</w>
lan e</w>
kin dle</w>
igno red</w>
i isc</w>
ho p</w>
deta iled</w>
b ass</w>
at oes</w>
thro wing</w>
sp an</w>
she ets</w>
sc or
r ud
pse ud
mix ture</w>
inv aded</w>
hy dra
hun dre
hom opho
hi ts</w>
hawai i</w>
f athers</w>
engag ement</w>
discus sion</w>
dis advantage</w>
differen tial</w>
denti st</w>
c kets</w>
bh ag
wee ts</w>
up dates</w>
under stood</w>
sociop aths</w>
soci alist</w>
regu lations</w>
ra s</w>
public ly</w>
pat na</w>
o saur
n ai
main land</w>
j ust</w>
it a</w>
for got</w>
ex tro
el em
cra ziest</w>
colla bor
cl one</w>
ass et</w>
acade mics</w>
ti ght</w>
super hero</w>
ra rely</w>
po ison</w>
mer ge</w>
malay sian</w>
im press</w>
ig n</w>
h l</w>
ext ended</w>
es timate</w>
dau ghters</w>
custom s</w>
co ordin
c it
bi ome
war fare</w>
si bling</w>
respec tful</w>
poo p</w>
pim ples</w>
ob viously</w>
musi cian</w>
mi gration</w>
i ot</w>
gr ounds</w>
func tioning</w>
filipin o</w>
e g</w>
dis ability</w>
den mark</w>
de fault</w>
ca strated</w>
bet ra
bab a</w>
authen tic</w>
ass ess
ul ating</w>
th um
pla in</w>
par ano
own ership</w>
notific ations</w>
manufactu rers</w>
i z
frequ ent</w>
cylin der</w>
cal ori
blo cks</w>
ad m
us sr</w>
tal ked</w>
ste in</w>
re se
pro cra
pre dat
pra y</w>
po o</w>
mem ber
meaning ful</w>
gro cer
g ang</w>
f ting</w>
comb ined</w>
co lo
cel lu
bul lied</w>
australi ans</w>
al ban
th a</w>
swi m</w>
st ands</w>
sh ame</w>
sen ate</w>
se attle</w>
sc an</w>
ol f</w>
o se</w>
o logist</w>
magn et</w>
ma dri
j ain</w>
i ims</w>
happ i
gen es</w>
g la
cre epy</w>
b age</w>
anxi ous</w>
a ji</w>
witn essed</w>
str a</w>
shop ify</w>
s as
resp ective</w>
pun ished</w>
le mon</w>
lat eral</w>
ki it</w>
k les</w>
hybri d</w>
gi ous</w>
eff or
dou bt</w>
defe ated</w>
concer n</w>
car bon
wel come</w>
v ary</w>
to dd
smart phones</w>
roo f</w>
resp ected</w>
prom in
pri mar
pre viously</w>
par tial</w>
on ate</w>
ob tained</w>
lo cations</w>
lau gh
journ alist</w>
induc tion</w>
h as
expo sure</w>
ex it</w>
di agram</w>
ci ous</w>
ch l
but ter
bun ch</w>
bro ker</w>
tr ash</w>
surroun ding</w>
p f</w>
on y
ma kers</w>
laun ched</w>
itali ans</w>
is s
inst antly</w>
hundre ds</w>
high school</w>
gol f</w>
go d
g ays</w>
conven i
compe tent</w>
com posed</w>
cent ers</w>
ca res</w>
associ ation</w>
ai ds</w>
accoun tant</w>
with dra
tur b
tu torials</w>
sk et
secre tary</w>
reco gn
por k</w>
over whel
ou red</w>
o sis</w>
mich igan</w>
mel bourne</w>
fl u</w>
entrepreneur ship</w>
di ar
bi kes</w>
us s</w>
st ages</w>
spre ading</w>
simu lation</w>
s lo
s ag
re solve</w>
pro pose</w>
pri ority</w>
free ze</w>
flu ent</w>
disgu sting</w>
di cal</w>
colum n</w>
c an</w>
believ es</w>
avi ation</w>
an atom
villa in</w>
t att
t ack
subscri ption</w>
sna p</w>
sel ler</w>
ri vers</w>
recommend ations</w>
q atar</w>
por tion</w>
osaur s</w>
leg acy</w>
lefti sts</w>
k arma</w>
k ap
ju li
in y</w>
gene tics</w>
for e</w>
en able</w>
dis able</w>
d v
cu red</w>
coo k
c ad</w>
w ins</w>
ron aldo</w>
retri eve</w>
pt sd</w>
p g
nutri tional</w>
ner ve</w>
na vi
m ers</w>
jo e</w>
heal ing</w>
figh ters</w>
em br
d b</w>
counsel ing</w>
comp rom
catho lics</w>
be at
ab str
vari ables</w>
ti ble</w>
threat ening</w>
spar k</w>
sexu als</w>
recru it</w>
princi pal</w>
phenom en
p is
on t
li ar</w>
ken ya</w>
ke j
k ir
i fs</w>
gu id
gen ous</w>
g ps</w>
en tum</w>
dom s</w>
destruc tion</w>
curricul um</w>
buil der</w>
assi um</w>
al umin
transpl ant</w>
te sto
si c</w>
rail ways</w>
pro hi
prin cess</w>
pi pe</w>
parli ament</w>
orgas m</w>
no table</w>
mur dered</w>
it ting</w>
hand ed</w>
ev ening</w>
conduc tor</w>
co im
wid ely</w>
un es</w>
tri ple</w>
ti ger</w>
ta tional</w>
t ata</w>
sy mb
s lu
rus t</w>
rul ed</w>
rec ep
psychiatri st</w>
pot assium</w>
pi g</w>
n pd</w>
madri d</w>
light ning</w>
g il
fire arms</w>
experi encing</w>
exc essive</w>
de liber
cryst al</w>
bo b</w>
b acks</w>
am y</w>
zuc ker
v y</w>
tro ops</w>
t ap
specific ations</w>
shap ed</w>
seem ingly</w>
sat an</w>
prescri ption</w>
photo shop</w>
pen ny</w>
o le</w>
nag pur</w>
na tionally</w>
n ity</w>
moder ate</w>
mat u
m s
kel ey</w>
immun e</w>
hor mon
hol ds</w>
hit ting</w>
gur u</w>
geo graphical</w>
enti t
ent o</w>
circu lar</w>
car rying</w>
bic ycle</w>
am on
w l</w>
up vote</w>
techn ically</w>
symb ols</w>
swit ching</w>
ser vers</w>
s j
pat ho
ox id
nucle us</w>
nu de</w>
mo ther
mo dule</w>
min ecraft</w>
li ke
knowle d
issu ed</w>
inven tions</w>
in ate</w>
fran k
en na</w>
dist ant</w>
dis count</w>
der ly</w>
dec lar
bi d</w>
ber keley</w>
b ms</w>
am oun
tis sue</w>
sy l
sh i</w>
se es</w>
s k</w>
philosoph ical</w>
le ase</w>
ken ne
har vey</w>
h au
edi tor</w>
disp la
dan cing</w>
cos me
br on
am ine</w>
ad sense</w>
ver tical</w>
v om
v enture</w>
sto l</w>
speci alist</w>
ri pple</w>
rec y
rec ur
re ferred</w>
r um
promo ting</w>
prin ted</w>
prefer ably</w>
poss ess</w>
metri c</w>
luc ky</w>
ine quality</w>
indi rec
he li
foo l</w>
fi itjee</w>
ever s</w>
din osaurs</w>
deci ding</w>
d al</w>
cul t</w>
coim bat
alumin um</w>
whe el
t wi
resid ency</w>
op ia</w>
mon s</w>
mi es</w>
lu ci
lo ads</w>
ky o</w>
ir rational</w>
fli es</w>
f o</w>
ex tract</w>
es pe
coimbat ore</w>
bn b</w>
bi go
a tis</w>
w at</w>
sho ts</w>
proce ed</w>
per pe
on aires</w>
mom entum</w>
mess i</w>
men tor</w>
lo yal</w>
leg ed</w>
kej ri
k up</w>
john son</w>
he lic
es tim
divor ced</w>
diar rhea</w>
chl oride</w>
ch op
bass y</w>
a a</w>
testo sterone</w>
separ ation</w>
sac rif
p and
own s</w>
occu pation</w>
o ids</w>
n oo
ma mm
invol ving</w>
in correct</w>
el der</w>
demon e
deli vered</w>
yp e</w>
ur du</w>
u ra
tou ching</w>
star bucks</w>
sor ship</w>
sm el
s ary</w>
ref used</w>
py ra
po cket</w>
ol ds</w>
oc to
jim my</w>
hun t</w>
fon t</w>
exper ts</w>
em bassy</w>
dri ves</w>
di oxide</w>
classi fication</w>
ci sts</w>
ch an</w>
bu g</w>
bal aji</w>
y ana</w>
trans actions</w>
sa as</w>
s op
resid ents</w>
ra i
mon d</w>
me als</w>
kejri wal</w>
h ating</w>
f rank</w>
every time</w>
dro pping</w>
dimen sion</w>
del u
consist ent</w>
conqu er</w>
concer t</w>
cap ture</w>
a ster
a g</w>
vad er</w>
tradi tion</w>
simp li
shak espe
sc ra
sacrif ice</w>
reve al</w>
re al
r c</w>
pc b</w>
om a</w>
occur s</w>
nega tively</w>
mor ality</w>
marath i</w>
i do
helic op
head ache</w>
el ing</w>
effor ts</w>
earthqua ke</w>
cur se</w>
cri ck
cor n
comple tion</w>
cand y</w>
boo bs</w>
ble ach</w>
ayurve da</w>
aut onom
alcoho lic</w>
ad olf</w>
sher lock</w>
sc ary</w>
ow ning</w>
offici als</w>
no kia</w>
ne pal
malay al
lear nt</w>
le wis</w>
in take</w>
im a</w>
i am</w>
horiz on
herit age</w>
he dge</w>
gran ted</w>
gr ass</w>
g ab
feasi ble</w>
cler k</w>
ch ase</w>
biome dical</w>
ali s</w>
ac les</w>
speci ally</w>
s l</w>
ri ding</w>
re me
re infor
quanti tative</w>
ped ophi
ne ar
member ship</w>
implemen tation</w>
heavi ly</w>
four th</w>
fo ssi
critici ze</w>
bul l</w>
att acking</w>
ak in</w>
ach i</w>
y n
si vely</w>
rich est</w>
pu ri
pl ug</w>
ph y
no r</w>
lic ence</w>
hand some</w>
h cl</w>
genu inely</w>
encou ra
egyp tian</w>
diffic ulties</w>
de aths</w>
coo ked</w>
ch air</w>
ca m</w>
bo iling</w>
balan ced</w>
at l
amoun ts</w>
alli ance</w>
ton y</w>
t ang
re mem
pressi ons</w>
l bs</w>
k an</w>
insan e</w>
home work</w>
emo tion</w>
dict ator</w>
as i</w>
al yp
un cle</w>
tou ched</w>
ti re</w>
tel es
tam ils</w>
stor m</w>
sou p</w>
re sign</w>
pgd m</w>
oper ator</w>
omet ric</w>
inv ite</w>
int ense</w>
g ence</w>
fuc king</w>
et on</w>
dy nasty</w>
de gra
de au</w>
d les</w>
compon ent</w>
chrom os
austri a</w>
t ted</w>
si sters</w>
sho e</w>
re sc
pe c</w>
octo ber</w>
mo dul
mer chant</w>
man kind</w>
l g</w>
het ero
had oop</w>
gen ic</w>
fa sting</w>
em pi
dem ort</w>
co vers</w>
co tton</w>
co l</w>
calcul ator</w>
ba rely</w>
air bnb</w>
zucker berg</w>
vul ner
volunte er</w>
vol demort</w>
un attractive</w>
tu i
tor ture</w>
sna kes</w>
reserv ed</w>
regar ded</w>
plac ing</w>
pe er</w>
over weight</w>
ont ario</w>
manag ing</w>
is i</w>
inst alling</w>
he brew</w>
gr ace</w>
gon na</w>
festiv al</w>
ex hi
colon ies</w>
co verage</w>
civili an</w>
a wards</w>
vacc ine</w>
th ful</w>
sh are
sc ari
por ting</w>
pe ak</w>
or ly</w>
oph er</w>
mis er
mar ked</w>
les hip</w>
jo y</w>
inst ance</w>
in et</w>
hyp no
htt p</w>
hr u</w>
h all
expec ting</w>
du ties</w>
digi ts</w>
des k</w>
conver ting</w>
continu ously</w>
anti bio
alphab et</w>
ad mini
ti l
sl r</w>
sig ning</w>
sig nature</w>
reti red</w>
re main
re form</w>
r ome
ori ented</w>
o hi
k ab
in jection</w>
exclud ing</w>
estab lish
ess ing</w>
deci des</w>
compla int</w>
comb ine</w>
bul b</w>
bra ins</w>
ber nie</w>
ban ana</w>
au dit</w>
ut tar</w>
un lock</w>
pun ch</w>
produc tivity</w>
pr one</w>
ol es</w>
mi ami</w>
men tation</w>
me tal
me tabo
lo ck
id en
fac tion</w>
en do
c age</w>
bo ts</w>
autom ated</w>
ari z
tu als</w>
tor al</w>
to kyo</w>
tam il
sou theast</w>
sa int</w>
orig ins</w>
o ts</w>
milli onaire</w>
mat lab</w>
li ze</w>
kine tic</w>
hor ses</w>
d ust</w>
cor respon
colon ial</w>
bla de</w>
bl on
ang ana</w>
ak h
a o</w>
tific ation</w>
there fore</w>
theore tically</w>
theore m</w>
statis tical</w>
sp ray</w>
recommend ation</w>
pre judi
po d</w>
missi les</w>
k ali</w>
ho bby</w>
gu est</w>
effici ently</w>
e ch
de af</w>
bit ing</w>
ass am</w>
ac a</w>
y iel
wb jee</w>
ul a</w>
tra it</w>
to y</w>
theat re</w>
th ap
sk i</w>
signific antly</w>
sa ke</w>
rub ber</w>
ro hin
renew able</w>
ref uses</w>
ko h
imp acts</w>
hypo critical</w>
hul k</w>
hang ing</w>
g g</w>
fo ren
dic tat
c tc</w>
c key</w>
bi ans</w>
b elli
ate dly</w>
amon gst</w>
ali sation</w>
venezu ela</w>
under wear</w>
tra ge
tim ately</w>
ti les</w>
stre tch</w>
shor ter</w>
s ers</w>
s ect</w>
mi ld</w>
kan pur</w>
idi ot</w>
hel lo</w>
h ra
gre w</w>
g ases</w>
fl ats</w>
fil ed</w>
fic ally</w>
exc ited</w>
disp lac
del o
de rer</w>
brac es</w>
aspir ant</w>
we l</w>
tre as
threat ened</w>
star e</w>
sla u
sc oo
ra tion
k ills</w>
in sects</w>
g li
er rors</w>
dig es
cigare tte</w>
chi p</w>
brazili an</w>
br ush</w>
be ans</w>
wa x</w>
veg ans</w>
tu torial</w>
tru deau</w>
trans ferred</w>
stereo types</w>
si tion</w>
shakespe are</w>
sh av
se an</w>
s ne
ren a
reme dy</w>
presti gious</w>
por no
ne hru</w>
it chy</w>
ir o</w>
in he
im moral</w>
il legally</w>
gu ess</w>
g ons</w>
el derly</w>
dic tionary</w>
christ opher</w>
ch and
buddh ist</w>
autonom ous</w>
athle tes</w>
un employed</w>
tru st
trans form</w>
streng th
st ability</w>
sh arma</w>
ren der</w>
mus e
lec tures</w>
le ban
infor med</w>
gram matically</w>
fin land</w>
expl ore</w>
dre am
contain er</w>
compen sation</w>
chec ks</w>
ca ine</w>
as ka</w>
ariz ona</w>
ap oc
accomp lish</w>
wid th</w>
vir al</w>
thre ats</w>
thap ar</w>
super power</w>
sk ir
shi p
sha h</w>
scri pts</w>
ro ck
ra bies</w>
out door</w>
nik on</w>
n ri</w>
m h
int ended</w>
fle xi
commer ci
clin ic</w>
ch ill</w>
billi onaire</w>
be e</w>
au tical</w>
asp iring</w>
ad ju
vic tory</w>
v l
v able</w>
tri gger</w>
skin ned</w>
sc am
s essions</w>
refl ect</w>
pu ber
in her
id ers</w>
hou ston</w>
gi e</w>
famili ar</w>
ex cess</w>
bra tion</w>
apologi ze</w>
adap t</w>
y land</w>
won dering</w>
w i</w>
tom y</w>
restric tions</w>
repe atedly</w>
refriger ator</w>
re ar</w>
promin ent</w>
ohi o</w>
man n</w>
fer tili
ec ution</w>
diam eter</w>
con sen
con firm</w>
chec ked</w>
busin ess
behavi oral</w>
astronau ts</w>
asse mble</w>
apoc alyp
wei ghts</w>
w ron
w ishes</w>
w ich</w>
vish nu</w>
vis u
sp am</w>
re mains</w>
r ough</w>
pharmaceu tical</w>
paint ings</w>
li ghter</w>
ill umin
for mu
d red</w>
comp aring</w>
bul l
activ ated</w>
vi br
stri c
sing ers</w>
scienti fically</w>
represen tation</w>
read er</w>
ra ma</w>
r hy
puber ty</w>
pl ing</w>
person alities</w>
moun tains</w>
motiv ational</w>
mo le
manufac ture</w>
kis sing</w>
inv o
hon or</w>
haw king</w>
g rid</w>
for gotten</w>
dro ps</w>
credi ts</w>
cra mps</w>
carol ina</w>
calori e</w>
ban ning</w>
b com</w>
ar ray</w>
anatom y</w>
y an
wh at</w>
up dated</w>
ul l</w>
tw ins</w>
tr uc
sun day</w>
spo tify</w>
si ck
sco tt</w>
po les</w>
ou l</w>
olymp ics</w>
mo tors</w>
is ation</w>
interpre tation</w>
iden tical</w>
hab ad</w>
fail ures</w>
end ers</w>
ear ned</w>
dist urb
diplom atic</w>
des perate</w>
delo it
coo ling</w>
col om
cin ema</w>
bu re
ar mor</w>
an ni
ak ash</w>
visi ons</w>
su ffered</w>
re min
p ics</w>
p ath
op position</w>
op pon
ni ke</w>
nag ar</w>
li te</w>
k il
je ff</w>
histor ically</w>
he ated</w>
fir ing</w>
f ing</w>
elem entary</w>
deloit te</w>
contro ls</w>
char ity</w>
bom bs</w>
ac ids</w>
un happy</w>
the ists</w>
smar test</w>
s am</w>
rom ans</w>
ro m</w>
re feren
push ing</w>
prof iles</w>
prison ers</w>
pot entially</w>
pho sp
pan els</w>
pal m</w>
o cr
mas cul
lic k</w>
it unes</w>
honest ly</w>
he tic</w>
gro ss</w>
enti ty</w>
end o</w>
encoun tered</w>
di alo
de t
d ges</w>
connec ting</w>
competi tors</w>
auth or
as us</w>
approxim ately</w>
app ing</w>
an ch
al ties</w>
z ant</w>
war ts</w>
w all
un less</w>
ul tr
too th
sho w
sha ve</w>
ru ined</w>
pus sy</w>
produc er</w>
pe ti
pe ar
origin ally</w>
n ano
mit ting</w>
mc donald</w>
m us</w>
ll c</w>
lic ation</w>
libr aries</w>
li zed</w>
hypothe tically</w>
gr in
experim ents</w>
dra s</w>
del ta</w>
cu ps</w>
continu ed</w>
consum ing</w>
collap sed</w>
b ou
ar du
and ru
am mon
aer on
a zer
ten nes
tel angana</w>
tal ented</w>
sym bio
scor pi
pop e</w>
po orly</w>
pass es</w>
no bel</w>
n es</w>
molecu le</w>
men tality</w>
manufactu rer</w>
magaz ines</w>
intro verts</w>
inter nationally</w>
ic ker</w>
hypothe tical</w>
fli p</w>
fa ils</w>
expi red</w>
el led</w>
de v</w>
cr ush
cr acking</w>
con feder
bhu ban
ali zing</w>
ad i</w>
actre sses</w>
weak ness</w>
vac ations</w>
ti me
synthe tic</w>
st ated</w>
soun d
sle pt</w>
sc ars</w>
ro y</w>
repu ted</w>
r ounds</w>
physi cist</w>
over night</w>
medic ines</w>
manip ulate</w>
i o</w>
eng aged</w>
en cryp
e fl</w>
e don
de press
corpor ations</w>
compre h
c pt</w>
bhuban es
ash ed</w>
alla habad</w>
v p</w>
trac ks</w>
tra u
text books</w>
supple ment</w>
sm oo
reson ance</w>
r r
