get 63055
best 62669
would 61534
people 56499
like 49747
good 38513
one 36474
india 32895
make 28397
think 26139
time 25115
many 24534
re@@ 23633
us 23542
much 23490
life 23141
use 22872
someone 22799
way 22263
know 20187
work 19492
a 18917
want 18864
take 18813
in@@ 18676
ever 18360
world 17440
find 17436
p@@ 17333
un@@ 17217
become 17004
k@@ 16959
person 16855
go 16806
without 16705
d@@ 16636
could 16389
year 16253
feel 16243
better 16059
quora 15954
b@@ 15058
g@@ 14763
trump 14762
new 14678
possible 14409
job 14376
es 14145
o 14083
years 14066
e@@ 14005
s@@ 13841
o@@ 13815
indian 13701
mean 13672
ed 13615
t@@ 13590
used 13473
women 13375
start 13333
c@@ 13285
need 13197
n@@ 13164
i 13013
first 12995
s 12657
e 12497
t 12470
difference 12459
money 12439
still 12276
di@@ 12105
different 12083
er 12066
ing 12023
old 11962
school 11942
country 11886
long 11814
de@@ 11773
really 11754
i@@ 11562
learn 11454
day 11374
business 11363
love 11310
man 11218
even 11086
men 11033
h@@ 11028
college 11021
things 10962
a@@ 10907
th 10874
l@@ 10837
ar@@ 10736
v@@ 10721
al 10646
f@@ 10629
engineering 10621
y@@ 10614
en@@ 10595
p 10591
ts 10547
y 10512
al@@ 10500
using 10461
book 10450
give 10423
help 10385
able 10327
ri@@ 10314
online 10299
ers 10283
say 10123
see 10115
m@@ 10112
on 10096
back 10032
bad 9900
an 9874
j@@ 9834
li@@ 9808
u@@ 9651
an@@ 9637
university 9552
company 9513
ro@@ 9481
change 9371
m 9295
sex 9258
co@@ 9230
ra@@ 9209
high 9195
made 9180
right 9109
stop 9073
anyone 9052
girl 9037
ate 9018
live 9014
getting 8970
ted 8884
student 8769
buy 8699
thing 8695
w@@ 8683
science 8675
two 8672
d 8605
study 8539
going 8524
name 8521
z@@ 8515
happen 8444
as@@ 8412
l 8409
age 8378
le@@ 8276
k 8240
ma@@ 8181
white 8157
countries 8144
st@@ 8133
am@@ 8125
ch@@ 8122
real 8088
r@@ 8064
china 8048
something 8017
look 7980
free 7959
c 7896
ation 7792
english 7754
water 7724
ting 7704
black 7684
ways 7680
american 7640
system 7628
red 7627
true 7610
n 7599
b 7574
experience 7552
tion 7529
ti@@ 7522
come 7514
questions 7507
class 7445
war 7413
less 7398
state 7396
books 7380
number 7347
er@@ 7341
sh@@ 7341
government 7341
important 7328
students 7324
language 7235
mo@@ 7220
ated 7207
la@@ 7157
friend 7136
computer 7089
tell 7070
se@@ 7042
con@@ 7030
si@@ 6914
human 6902
keep 6872
social 6863
g 6855
non 6820
ad@@ 6795
never 6772
girls 6758
always 6738
el@@ 6719
every 6691
on@@ 6669
end 6664
phone 6647
dis@@ 6615
or@@ 6614
place 6592
th@@ 6592
pro@@ 6555
home 6554
friends 6546
career 6514
data 6489
be@@ 6447
ac@@ 6378
chinese 6374
relationship 6372
ine 6322
america 6305
im@@ 6296
done 6291
sp@@ 6275
write 6269
software 6201
working 6184
at@@ 6170
future 6121
x 6095
parents 6078
days 6054
le 6029
app 6027
exam 6025
learning 6014
account 5978
family 5956
food 5952
top 5946
website 5935
car 5915
got 5903
als 5900
guy 5900
read 5878
st 5873
well 5865
another 5849
u 5827
x@@ 5799
usa 5765
states 5759
around 5740
ex@@ 5714
believe 5712
power 5699
google 5698
ating 5667
pre@@ 5659
course 5659
kind 5650
happens 5638
wrong 5577
big 5576
test 5560
body 5545
se 5503
companies 5494
op@@ 5492
today 5480
lo@@ 5471
hard 5470
type 5470
per 5470
show 5448
ab@@ 5445
ds 5443
americans 5427
it@@ 5421
makes 5414
woman 5408
movie 5402
major 5402
history 5399
jee 5395
in 5383
also 5383
hate 5360
last 5352
r 5350
god 5339
ap@@ 5335
canada 5328
ic 5323
ask 5308
pay 5305
om@@ 5302
question 5296
bo@@ 5285
normal 5277
ta@@ 5258
child 5231
muslims 5231
cost 5205
president 5192
create 5181
me@@ 5180
living 5174
play 5162
children 5148
degree 5141
house 5118
to@@ 5114
considered 5103
part 5088
win 5058
vi@@ 5052
earth 5034
media 5030
law 5024
facebook 5023
tions 5021
po@@ 5018
est 5015
tv 5012
ter 4991
since 4982
marks 4971
market 4969
rank 4969
common 4969
es@@ 4965
ly 4965
instead 4946
son 4918
ag@@ 4908
great 4897
examples 4890
mon@@ 4865
do@@ 4849
ant 4848
answer 4845
prepare 4835
writing 4824
process 4817
actually 4815
given 4799
united 4778
ms 4777
ph@@ 4768
anything 4764
light 4755
man@@ 4747
ar 4731
eat 4731
ans 4724
is@@ 4722
making 4717
par@@ 4705
game 4701
king 4693
jobs 4679
choose 4672
point 4653
medical 4653
no@@ 4652
ic@@ 4647
music 4644
em@@ 4643
call 4641
next 4635
order 4629
average 4628
known 4625
ding 4623
form 4621
f 4587
he@@ 4574
current 4559
ca@@ 4540
ne@@ 4538
cause 4531
score 4516
ni@@ 4514
math 4494
te 4485
low 4484
indians 4480
ous 4480
self 4476
small 4475
video 4459
join 4455
deal 4448
service 4446
apply 4441
north 4438
w 4429
te@@ 4428
affect 4423
worth 4412
uk 4395
bank 4392
per@@ 4379
reason 4375
main 4371
ho@@ 4359
sub@@ 4354
tive 4350
hi@@ 4338
word 4316
support 4314
causes 4311
tri@@ 4305
mi@@ 4303
date 4296
left 4285
ent 4284
pe@@ 4281
ps 4279
har@@ 4276
field 4269
tra@@ 4260
h 4259
called 4238
mar@@ 4226
lot 4225
tips 4198
ance 4196
face 4191
card 4189
technology 4185
south 4185
put 4170
tic 4166
iit 4132
pakistan 4124
let 4122
based 4121
full 4118
open 4097
months 4096
etc 4096
ons 4095
public 4083
delhi 4081
ks 4080
muslim 4078
engineer 4077
energy 4075
care 4075
um 4067
ment 4049
value 4047
city 4046
others 4033
taking 4031
fi@@ 4016
travel 4015
design 4014
bi@@ 4011
de 4006
away 4004
management 3997
physics 3988
level 3988
marketing 3987
safe 3980
su@@ 3979
ver@@ 3975
air 3974
development 3969
hair 3969
move 3968
research 3968
control 3948
improve 3946
times 3946
meaning 3945
ul@@ 3944
side 3940
sc@@ 3935
car@@ 3927
ur@@ 3920
so@@ 3916
weight 3914
term 3907
problem 3901
space 3896
ex 3891
as 3885
ia 3885
for@@ 3876
found 3870
idea 3868
fe@@ 3846
program 3846
education 3844
gu@@ 3833
single 3829
health 3827
series 3810
general 3795
et@@ 3761
understand 3749
popular 3747
international 3739
donald 3737
stay 3734
political 3731
talk 3727
enough 3722
android 3713
required 3711
force 3710
try 3709
mba 3707
build 3700
at 3682
dog 3680
movies 3672
month 3669
increase 3666
gi@@ 3665
everyone 3649
mind 3637
tech 3634
ally 3628
res 3621
os 3620
group 3617
available 3613
youtube 3610
programming 3607
problems 3601
post 3595
humans 3589
wear 3583
us@@ 3581
favorite 3581
legal 3568
boyfriend 3566
ors 3566
v 3566
story 3558
behind 3557
cat 3550
salary 3543
happened 3537
mobile 3533
death 3508
ings 3500
act 3487
military 3486
set 3485
tu@@ 3483
said 3483
gh@@ 3478
girlfriend 3476
site 3474
often 3474
short 3455
benefits 3447
ak@@ 3445
ates 3442
line 3436
run 3435
el 3433
society 3431
ch 3430
z 3426
female 3424
ge@@ 3422
qu@@ 3412
related 3410
civil 3408
die 3405
russia 3401
due 3393
over@@ 3392
der 3389
looking 3385
successful 3385
night 3383
list 3382
war@@ 3379
culture 3373
bri@@ 3373
kill 3370
go@@ 3366
en 3351
watch 3333
bu@@ 3326
else 3325
pi@@ 3320
sa@@ 3316
leave 3313
europe 3296
et 3295
words 3290
party 3290
purpose 3283
religion 3281
germany 3279
visa 3276
ies 3272
ism 3271
du@@ 3264
web 3263
ty 3254
mass 3252
cs 3250
led 3242
information 3241
land 3241
role 3240
ali@@ 3238
bar@@ 3224
kids 3214
sell 3214
ls 3210
lose 3202
male 3188
ca 3185
speed 3176
consider 3174
admission 3171
answers 3167
inter@@ 3167
ling 3166
tr@@ 3164
board 3161
past 3159
starting 3157
rate 3157
up@@ 3154
british 3149
min@@ 3145
uses 3145
internet 3141
skills 3140
sts 3137
training 3131
similar 3130
product 3126
seen 3126
colleges 3122
guys 3117
ec@@ 3117
ru@@ 3112
mechanical 3111
industry 3110
ci@@ 3109
tax 3107
everything 3102
ve 3101
ir@@ 3098
gay 3097
studying 3088
pain 3087
types 3081
case 3081
code 3081
modern 3077
bl@@ 3075
korea 3071
fight 3068
opinion 3053
games 3051
ins 3050
share 3050
ke 3048
ad 3041
exist 3034
personal 3033
advice 3033
earn 3021
com@@ 3020
services 3019
though 3019
second 3008
cu@@ 3002
paper 2997
mother 2989
pa@@ 2988
effective 2982
allowed 2980
blood 2979
australia 2965
famous 2963
mu@@ 2957
machine 2955
vs 2953
application 2952
star 2952
interview 2950
ble 2946
area 2938
police 2938
married 2937
project 2935
rather 2913
marriage 2912
gun 2910
ce 2908
gate 2908
terms 2904
foreign 2898
bangalore 2892
knowledge 2891
courses 2891
or 2889
private 2884
easy 2881
brain 2880
out@@ 2878
function 2878
ness 2872
period 2869
ist 2863
difficult 2857
skin 2857
already 2853
mumbai 2853
wife 2852
ked 2849
effect 2848
um@@ 2841
trying 2840
fl@@ 2838
under@@ 2835
ations 2835
ded 2830
mis@@ 2829
cse 2827
view 2824
amount 2817
explain 2813
compared 2812
liberals 2812
ze 2811
treat 2810
places 2810
cr@@ 2805
id 2803
price 2800
daily 2797
follow 2784
ter@@ 2784
plan 2782
worst 2777
neet 2774
vo@@ 2772
che@@ 2768
gra@@ 2768
middle 2767
team 2766
says 2760
hours 2760
song 2756
wants 2754
father 2754
amazon 2750
news 2742
japanese 2741
asked 2741
universe 2741
ob@@ 2741
ve@@ 2740
natural 2730
wi@@ 2729
towards 2728
useful 2724
il@@ 2722
co 2720
av@@ 2719
quality 2716
products 2713
head 2712
biggest 2708
ev@@ 2707
sion 2701
correct 2698
rid 2694
com 2692
prevent 2692
example 2690
ses 2683
ence 2682
turn 2682
sleep 2679
bur@@ 2673
cre@@ 2673
iphone 2671
ents 2668
seem 2668
yet 2666
visit 2666
happy 2664
taken 2664
young 2664
ats 2657
theory 2654
institute 2653
national 2652
stock 2644
security 2641
may 2640
tor 2639
ideas 2638
model 2633
started 2632
ha@@ 2627
les 2626
ent@@ 2626
three 2625
ge 2617
israel 2615
cut 2615
ten@@ 2614
ce@@ 2612
coaching 2609
ari@@ 2608
lost 2603
thinking 2602
offer 2599
size 2598
mental 2598
islam 2596
describe 2596
modi 2589
paid 2588
pri@@ 2586
invest 2584
oil 2584
cor@@ 2582
necessary 2579
effects 2576
animals 2575
far 2573
am 2572
download 2569
sexual 2569
born 2561
art 2561
fall 2555
week 2553
ma 2549
ator 2544
japan 2543
chemical 2541
ants 2528
fast 2525
dy 2524
okay 2523
boy 2520
avoid 2520
differences 2520
bs 2520
matter 2514
option 2513
instagram 2513
ang@@ 2509
ary 2503
likely 2496
ves 2495
br@@ 2493
hand 2492
grow 2492
anti 2491
character 2491
negative 2491
ity 2484
ster 2484
ones 2480
gs 2480
little 2472
eating 2467
ou@@ 2460
dec@@ 2460
we@@ 2459
sound 2457
expect 2456
mer@@ 2453
gets 2452
dra@@ 2451
professional 2449
break 2449
develop 2446
jews 2442
dating 2440
ton 2440
chance 2437
provide 2430
tic@@ 2427
ste@@ 2424
least 2423
facts 2423
must 2420
exams 2414
reasons 2413
present 2413
gain 2410
laptop 2409
rec@@ 2409
uc@@ 2404
dream 2400
tes 2400
large 2397
add 2394
reading 2394
depression 2394
table 2391
hu@@ 2386
remove 2384
together 2384
pl@@ 2384
graduate 2383
ai 2378
room 2377
j 2374
sing 2373
schools 2372
army 2366
chances 2364
feeling 2364
style 2363
told 2360
send 2358
accept 2357
sen@@ 2355
apps 2353
within 2351
chemistry 2351
comes 2341
scope 2327
mor@@ 2327
ud@@ 2324
allow 2322
interested 2322
speak 2321
office 2317
ker 2315
husband 2312
ry 2312
end@@ 2310
prefer 2301
european 2300
moving 2298
interest 2298
wa@@ 2295
ok 2291
poor 2289
works 2289
bed 2288
obama 2287
investment 2284
fake 2284
trans@@ 2282
western 2282
preparation 2282
becoming 2278
store 2273
der@@ 2272
drive 2269
phd 2267
den@@ 2266
digital 2262
wh@@ 2259
interesting 2258
close 2255
financial 2254
sed 2253
nothing 2251
col@@ 2250
ger 2243
income 2236
population 2234
ars 2232
west 2228
thoughts 2224
rich 2223
options 2221
basic 2219
sites 2214
cl@@ 2214
illegal 2213
ren@@ 2212
percentage 2211
nuclear 2208
outside 2207
impact 2207
contact 2205
the@@ 2205
q@@ 2202
ver 2202
subject 2200
charge 2198
ments 2194
pat@@ 2193
ens 2192
check 2188
inf@@ 2188
french 2187
lation 2185
universities 2184
upsc 2183
baby 2182
changed 2173
pass 2172
ba 2164
rights 2161
java 2159
ta 2159
apple 2156
solution 2153
studies 2152
ana 2151
lower 2150
higher 2150
languages 2146
source 2146
ties 2144
coming 2142
solve 2141
fin@@ 2140
ber@@ 2139
pen@@ 2139
strong 2134
jo@@ 2134
physical 2134
teacher 2128
might 2127
special 2126
email 2124
building 2121
mains 2121
advantages 2110
fact 2109
sur@@ 2108
characteristics 2105
ise 2104
heart 2102
pu@@ 2102
intelligence 2101
personality 2101
german 2096
racist 2095
ol@@ 2094
websites 2091
can@@ 2091
ay@@ 2087
sti@@ 2087
issues 2087
ability 2083
please 2082
developer 2081
doctor 2081
meet 2080
master 2079
ite 2073
sc 2073
sal@@ 2073
created 2070
fat 2070
prove 2064
pressure 2062
marry 2060
net 2060
recommend 2055
cro@@ 2054
na@@ 2052
branch 2052
credit 2051
russian 2048
economy 2046
rest 2044
ke@@ 2042
laws 2041
practice 2040
gas 2040
smart 2038
back@@ 2038
ws 2036
asian 2036
pregnant 2036
structure 2036
it 2035
hindi 2032
currently 2031
dark 2030
int@@ 2030
startup 2028
positive 2028
tor@@ 2025
ya 2025
sin@@ 2023
serve 2017
written 2014
partner 2013
africa 2010
ago 2004
la 2004
near 2002
mom 2002
inside 2001
pursue 2000
hyderabad 1999
position 1999
spend 1998
early 1998
complete 1998
bitcoin 1996
network 1996
views 1994
crush 1994
lin@@ 1990
ba@@ 1987
ler 1985
bring 1981
talking 1981
certain 1980
ping 1977
maths 1975
giving 1971
whole 1970
pan@@ 1969
sense 1969
lu@@ 1968
alone 1968
christians 1968
key 1966
windows 1964
cell 1964
videos 1963
text 1961
film 1961
acting 1957
nation 1955
completely 1955
numbers 1955
dogs 1950
super@@ 1949
ner 1947
officer 1946
rent 1943
bra@@ 1941
topics 1940
yes 1937
iq 1937
page 1936
nit 1934
content 1933
au@@ 1930
christian 1925
pune 1924
among 1922
factors 1921
mat@@ 1920
especially 1920
global 1920
healthy 1918
religious 1917
cbse 1914
cap@@ 1914
zed 1914
des 1912
front 1912
ss@@ 1907
shi@@ 1904
according 1904
needed 1904
exactly 1904
distance 1899
save 1899
fear 1898
ran@@ 1898
sk@@ 1898
stupid 1898
fix 1894
men@@ 1888
cold 1887
ant@@ 1886
file 1885
playing 1884
reduce 1883
names 1882
songs 1880
treatment 1879
ser@@ 1878
color 1876
train 1870
race 1868
east 1868
tors 1867
ship 1867
ff@@ 1867
insurance 1865
pro 1864
her@@ 1862
half 1862
electrical 1859
boys 1858
il 1856
attack 1855
eyes 1855
wing 1851
novel 1851
grade 1851
hurt 1849
ra 1849
fire 1846
pc 1844
tics 1844
community 1844
str@@ 1842
buying 1841
advanced 1839
minimum 1839
dead 1838
teach 1838
tre@@ 1837
policy 1837
democrats 1835
simple 1834
ches 1833
african 1832
letter 1832
air@@ 1828
ful 1826
green 1825
opportunities 1824
developed 1821
eye 1819
nu@@ 1818
sign 1815
economic 1815
lead 1814
sta@@ 1813
thought 1812
sted 1812
economics 1811
asking 1808
multiple 1807
active 1807
hindu 1806
react 1805
player 1805
electric 1804
clear 1800
sure 1799
is 1797
running 1796
bal@@ 1795
mathematics 1795
ash@@ 1789
result 1789
method 1788
abroad 1788
procedure 1786
analysis 1786
almost 1785
search 1785
easily 1781
cars 1779
growth 1778
anxiety 1774
transfer 1773
bit 1772
my@@ 1770
ore 1769
els 1768
football 1767
ja@@ 1766
masters 1762
blue 1760
ering 1758
ori@@ 1758
saying 1758
importance 1757
gr@@ 1755
strategy 1752
situation 1749
cy@@ 1749
moon 1744
beautiful 1743
cannot 1742
summer 1742
cities 1742
mal@@ 1742
action 1741
claim 1740
ven@@ 1739
animal 1739
char@@ 1737
late 1734
heard 1733
ancient 1730
ders 1729
gar@@ 1727
specific 1725
fun 1725
drink 1724
sometimes 1723
accomplishments 1721
later 1720
manage 1715
lives 1714
del@@ 1714
finance 1714
stand 1712
politics 1711
daughter 1710
classes 1709
profile 1708
ical 1708
sister 1706
nor@@ 1705
standard 1703
choice 1703
met 1703
california 1701
birth 1701
steps 1700
changes 1699
link 1699
survive 1698
ess 1697
cur@@ 1696
cancer 1696
systems 1696
da 1695
wars 1695
and@@ 1690
clean 1689
singapore 1689
recently 1689
suggest 1689
deep 1688
parts 1687
fa@@ 1685
cou@@ 1682
tation 1680
jesus 1680
ed@@ 1677
ice 1675
sting 1674
ying 1672
cing 1669
perfect 1669
election 1669
ball 1665
material 1664
tim@@ 1661
ac 1661
fully 1660
powerful 1660
events 1659
enjoy 1659
ai@@ 1658
narcissist 1655
ban@@ 1652
overcome 1651
court 1649
killed 1649
mac@@ 1649
ists 1649
ill@@ 1648
wanted 1646
win@@ 1646
sports 1644
shows 1643
ging 1643
ine@@ 1642
continue 1641
gen@@ 1641
respect 1641
bjp 1639
internship 1639
longer 1639
trading 1638
brand 1636
despite 1636
ring 1636
anime 1634
resources 1634
seems 1633
means 1629
tamil 1629
recent 1625
bro@@ 1625
gl@@ 1625
return 1624
ten 1622
lic@@ 1620
engine 1620
issue 1618
sis 1618
kar@@ 1618
stories 1616
kes 1613
hitler 1613
final 1611
tion@@ 1611
im 1610
feelings 1609
stra@@ 1609
chennai 1605
sun@@ 1605
planning 1605
realize 1605
block 1605
adult 1604
trade 1603
mark 1601
access 1600
ath@@ 1600
regarding 1596
moment 1596
compare 1592
ka 1590
wish 1589
property 1587
psychology 1585
considering 1584
loss 1583
hindus 1582
disorder 1579
ias 1579
season 1578
ber 1576
diet 1576
success 1576
original 1574
anti@@ 1573
temperature 1573
bill 1571
determine 1571
convert 1568
speaking 1567
cra@@ 1567
id@@ 1566
sun 1565
version 1565
communication 1564
ben@@ 1564
dangerous 1563
hot 1563
hit 1563
ters 1562
hi 1562
mbbs 1562
ly@@ 1562
porn 1561
comp@@ 1561
lord 1560
gender 1558
dly 1557
wor@@ 1556
produce 1552
along 1551
came 1550
commerce 1550
liberal 1548
fo@@ 1548
older 1546
don@@ 1545
trust 1543
john 1543
ga@@ 1542
voice 1541
scientific 1541
exp@@ 1540
uni@@ 1540
lie 1538
gre@@ 1537
potential 1534
reaction 1534
ass@@ 1533
pm 1532
ators 1531
likes 1531
wal@@ 1529
ft 1529
expensive 1527
ssc 1527
ty@@ 1526
da@@ 1526
plant 1525
whether 1524
usually 1522
everyday 1521
ian 1519
whatsapp 1518
off@@ 1518
hold 1515
applications 1515
reach 1515
zing 1514
super 1511
characters 1509
ach@@ 1508
sales 1508
via 1508
calculate 1507
regular 1506
native 1506
do 1503
graduation 1503
ning 1503
ash 1502
greatest 1502
hy@@ 1502
influence 1500
ys 1499
manager 1499
needs 1498
weeks 1498
following 1497
crime 1496
un 1496
bre@@ 1495
address 1495
fu@@ 1495
hand@@ 1495
fla@@ 1494
cheap 1493
user 1493
mel@@ 1492
campus 1492
vote 1491
star@@ 1490
mc@@ 1490
handle 1489
members 1489
korean 1487
planet 1486
medicine 1484
technical 1484
bio@@ 1482
fer@@ 1482
france 1480
focus 1480
ast 1479
ads 1477
ww 1477
sive 1477
drop 1477
blog 1476
fit 1474
tried 1473
evidence 1473
local 1471
base 1469
tional 1468
pr@@ 1467
went 1465
benefit 1465
je@@ 1465
suicide 1464
bible 1463
screen 1463
ko@@ 1462
techniques 1461
features 1461
memory 1461
fre@@ 1461
harry 1460
micro@@ 1460
ham@@ 1459
ited 1458
stri@@ 1457
nature 1454
yo@@ 1454
indi@@ 1453
sions 1450
citizens 1450
report 1448
des@@ 1446
image 1445
appear 1443
equal 1443
sa 1442
category 1442
loan 1442
results 1441
certificate 1440
watching 1439
surgery 1439
total 1437
pic@@ 1437
knowing 1436
inspired 1436
val@@ 1436
reality 1435
users 1433
ny 1433
acy 1432
cer@@ 1432
approach 1431
groups 1431
intelligent 1431
production 1431
ju@@ 1431
ess@@ 1431
iran 1429
box 1429
acid 1428
center 1426
bor@@ 1425
lan@@ 1425
attractive 1425
ely 1424
fy 1424
faster 1423
environment 1423
speech 1421
crack 1421
solar 1419
sw@@ 1418
background 1418
performance 1417
points 1417
oc@@ 1416
medi@@ 1416
sentence 1415
brother 1414
fish 1413
ili@@ 1412
rule 1412
highest 1412
ged 1410
sent 1410
straight 1409
meant 1408
actor 1406
devices 1406
ear@@ 1404
cover 1404
be 1404
height 1404
majority 1403
seat 1402
ology 1402
object 1402
ace 1401
log@@ 1401
rs 1401
penis 1399
ns 1398
lin 1396
prime 1396
ki@@ 1395
dc 1394
goes 1392
subjects 1392
cons 1392
bit@@ 1390
agree 1390
ak 1388
heat 1387
range 1387
cen@@ 1387
flight 1386
hal@@ 1386
seeing 1385
hor@@ 1384
rape 1383
att@@ 1383
down@@ 1382
topic 1382
york 1381
picture 1380
inv@@ 1380
tur@@ 1380
poly@@ 1380
dr@@ 1378
proof 1378
ement 1377
ard 1377
oo@@ 1376
channel 1376
capital 1374
ages 1369
status 1369
lies 1369
mit 1367
review 1367
looks 1367
lic 1366
gst 1364
weird 1364
na 1363
biology 1363
ching 1362
projects 1361
battery 1360
message 1360
million 1358
employees 1358
convince 1358
track 1358
location 1357
eng@@ 1357
sho@@ 1356
challenges 1355
phones 1355
event 1354
step 1353
entrance 1353
lar 1353
concept 1349
nd 1344
jewish 1343
pros 1343
logy 1342
ah 1341
maximum 1340
london 1340
cri@@ 1339
platform 1339
rules 1339
ban 1338
engineers 1338
hom@@ 1338
aw@@ 1338
pet 1337
stic 1336
decide 1336
treated 1334
head@@ 1333
tt@@ 1332
decision 1332
ass 1332
top@@ 1331
tro@@ 1331
involved 1330
spanish 1330
road 1329
caused 1329
selling 1329
influenced 1329
citizen 1328
third 1327
driving 1327
pra@@ 1327
guns 1326
truth 1326
sto@@ 1326
biography 1324
dar@@ 1323
camera 1323
cho@@ 1322
details 1321
eth@@ 1320
plants 1320
expected 1320
suddenly 1318
chi@@ 1316
took 1315
metal 1310
wall 1310
all@@ 1310
methods 1310
hear 1309
eu 1308
ial 1306
ip@@ 1305
sel@@ 1304
ality 1304
fri@@ 1304
stream 1304
gold 1304
atheists 1303
differ 1303
killing 1302
disadvantages 1299
switch 1299
programs 1299
tically 1298
nice 1297
ure 1294
bul@@ 1294
are 1294
afraid 1292
pur 1291
ire 1289
paying 1288
fil@@ 1288
member 1288
assi@@ 1287
milk 1285
gam@@ 1285
pictures 1285
nar@@ 1285
protect 1284
cat@@ 1284
four 1283
ics 1283
hire 1283
cricket 1282
ece 1282
arts 1281
across 1280
ground 1280
require 1280
ese 1279
fied 1279
dri@@ 1278
ley 1277
remember 1276
takes 1275
ti 1273
secret 1273
fol@@ 1272
receive 1272
canadian 1271
hillary 1269
soon 1268
anymore 1267
ery 1265
limit 1265
dy@@ 1265
turkey 1263
freedom 1262
plus 1262
ck 1262
individual 1261
risk 1261
ining 1260
cash 1259
ward 1258
joining 1258
ined 1256
actual 1256
dad 1254
cal@@ 1253
budget 1253
drug 1251
immigrants 1251
either 1249
imp@@ 1249
carry 1249
core 1249
lack 1248
favourite 1247
ay 1247
gg@@ 1246
pho@@ 1245
became 1244
sin 1244
union 1244
asia 1244
preparing 1242
relationships 1241
fair 1241
traffic 1240
evil 1240
cla@@ 1239
weapons 1238
achieve 1237
basis 1237
democracy 1236
cli@@ 1235
clo@@ 1235
wedding 1235
python 1232
wait 1232
experienced 1230
england 1228
round 1227
conservatives 1227
fund 1226
ss 1226
areas 1225
century 1224
entire 1224
zz@@ 1223
stress 1222
responsible 1221
ative 1221
forms 1221
ines 1221
sm@@ 1219
gravity 1219
flat 1218
ep@@ 1217
placement 1217
ap 1217
turned 1216
to 1215
doctors 1215
tend 1214
purchase 1214
gives 1213
ved 1213
inst@@ 1212
coding 1211
ton@@ 1211
rac@@ 1210
que 1209
wise 1207
tools 1207
squ@@ 1207
apart 1207
ale 1206
hon@@ 1206
fail 1205
replace 1204
applied 1204
def@@ 1201
station 1201
peace 1200
fly 1200
med 1199
pt 1199
five 1198
changing 1197
wn 1197
photos 1196
va 1196
activities 1195
ended 1194
worse 1194
pre 1193
alcohol 1193
supporters 1193
sli@@ 1192
logical 1192
losing 1190
league 1190
ams 1189
license 1187
kin@@ 1187
out 1187
creative 1186
por@@ 1185
q 1185
sea 1185
profit 1184
writer 1184
empire 1184
ani@@ 1183
applying 1183
boo@@ 1183
failed 1182
delete 1182
teachers 1180
scale 1180
beat 1179
tis 1178
zero 1178
ately 1177
various 1177
di 1177
land@@ 1177
double 1176
sn@@ 1176
conservative 1175
nations 1175
po 1175
ig@@ 1174
republicans 1172
las 1172
sit 1172
bike 1171
lines 1170
connect 1170
clinton 1170
serious 1169
comm@@ 1169
cure 1168
device 1168
couple 1168
dh@@ 1167
pregnancy 1166
san 1166
ect 1166
microsoft 1165
therapy 1164
ster@@ 1163
died 1161
hole 1161
ently 1160
kolkata 1160
cats 1159
demand 1159
stre@@ 1158
produced 1158
formed 1157
significant 1156
depressed 1156
abuse 1155
ils 1155
ger@@ 1154
cm 1154
cul@@ 1153
tem@@ 1153
estate 1153
conversation 1152
sector 1151
dubai 1147
ced 1146
stage 1145
pal@@ 1144
tan@@ 1144
sat 1144
battle 1142
balance 1141
drugs 1141
parent 1140
cool 1140
fashion 1139
generally 1139
hands 1139
kid 1138
ha 1138
ces 1137
ths 1137
kers 1137
xi@@ 1136
trip 1135
ving 1134
players 1134
ned 1134
hun@@ 1133
ish 1133
sec@@ 1132
yed 1132
clothes 1132
symptoms 1132
completing 1132
requirements 1131
funds 1131
previous 1130
arm 1130
enter 1129
dic@@ 1128
hour 1128
az@@ 1128
saw 1128
forces 1127
bar 1127
electronics 1126
emotional 1126
growing 1126
papers 1126
mexico 1125
speci@@ 1125
flo@@ 1124
street 1124
investing 1124
bits 1123
latest 1122
by 1122
entry 1121
pg 1121
ges 1121
ii 1121
feed 1121
weather 1120
ture 1120
zation 1120
wearing 1120
our 1119
cet 1117
cells 1116
match 1114
exchange 1113
built 1112
artificial 1112
advantage 1112
ur 1111
generation 1110
signs 1109
dreams 1109
sort 1109
equation 1108
selected 1107
corporate 1106
lat@@ 1106
bing 1106
central 1106
ram 1106
fee 1105
besides 1105
hum@@ 1104
constantly 1104
coffee 1103
passport 1103
soldiers 1103
tives 1102
morning 1102
gers 1102
tal 1100
feet 1100
liber@@ 1100
graphic 1099
shot 1099
colon@@ 1099
sm 1099
congress 1098
prom@@ 1098
cards 1097
minister 1097
ade 1096
twitter 1096
bus 1096
somebody 1095
particular 1093
record 1093
ios 1093
sters 1092
values 1091
extremely 1091
eu@@ 1090
directly 1089
truly 1088
hotel 1087
attracted 1086
functions 1086
behavior 1086
commercial 1086
unique 1085
dry 1085
followers 1085
dollars 1084
ff 1084
employee 1083
banking 1083
attention 1083
acc@@ 1082
accepted 1082
leader 1082
messages 1082
simply 1081
spe@@ 1081
ends 1080
rise 1080
accounts 1080
conditions 1080
drinking 1080
coun@@ 1080
formula 1080
aware 1078
species 1077
department 1076
huge 1075
immigration 1075
ky 1074
ill 1073
den 1073
teaching 1071
samsung 1069
testing 1068
leg@@ 1068
easier 1067
bel@@ 1066
democratic 1066
construction 1066
justice 1066
hin@@ 1065
pa 1065
direct 1065
sar@@ 1064
electricity 1064
gift 1063
server 1062
disease 1062
walk 1062
cope 1062
gri@@ 1062
piece 1062
taxes 1062
brown 1061
tical 1060
connection 1059
broken 1059
vit 1058
damage 1058
currency 1057
edi@@ 1057
movement 1056
shop 1054
alism 1054
vision 1054
respond 1054
britain 1053
band 1053
boards 1052
church 1052
largest 1051
teen 1051
supposed 1051
including 1050
stocks 1050
affected 1049
explo@@ 1049
mail 1049
ised 1049
restaurant 1048
ped 1046
angry 1044
wat@@ 1044
rep@@ 1044
taste 1044
quantum 1043
tw@@ 1043
caste 1043
iron 1042
aiims 1042
creating 1041
traditional 1040
academic 1038
actions 1038
levels 1038
domin@@ 1037
muscle 1037
teeth 1037
legally 1036
package 1035
customer 1035
dna 1034
fees 1034
pe 1033
bon@@ 1032
ga 1032
dd@@ 1032
vol@@ 1031
si 1031
typical 1031
physically 1030
extra 1029
anybody 1029
pick 1028
easiest 1027
identify 1027
pot@@ 1027
ye@@ 1027
sad 1025
scared 1025
aff@@ 1024
exercise 1024
ugly 1023
cultural 1022
pers 1022
cal 1022
manufacturing 1021
relation 1021
flu@@ 1021
touch 1021
pakistani 1020
recover 1020
materials 1019
photo 1018
comments 1018
bru@@ 1018
tests 1018
flow 1016
supply 1015
note 1015
tool 1015
zi@@ 1015
candidate 1014
cont@@ 1014
mostly 1013
cloud 1013
ration 1013
ne 1013
dont 1011
door 1011
surface 1011
cast 1011
ast@@ 1010
enti@@ 1010
indonesia 1009
centre 1009
perform 1009
ue 1009
bsc 1009
tal@@ 1008
ming 1007
undergraduate 1007
sources 1007
spac@@ 1007
express 1006
measure 1006
philosophy 1006
condition 1005
dress 1004
vietnam 1004
pul@@ 1003
bac@@ 1003
kh@@ 1003
colour 1003
bh@@ 1002
essay 1001
mer 1001
ji 1001
origin 1000
rely 999
listen 999
loved 998
physi@@ 998
wit@@ 997
invented 997
christianity 997
europeans 996
ases 996
alive 996
received 996
scre@@ 996
cop@@ 995
payment 995
significance 995
jun@@ 995
thi@@ 995
sil@@ 995
coo@@ 995
sugar 994
pilot 993
carbon 991
row 990
section 990
developing 989
gone 988
islamic 988
stuff 988
re 987
probability 987
architecture 986
constant 986
aries 986
banks 985
quickly 985
post@@ 985
cheapest 985
neuro@@ 984
stu@@ 984
risks 983
placements 983
attempt 983
sam@@ 983
mit@@ 982
bia 982
independent 982
domain 981
racism 981
except 981
bigger 981
our@@ 981
files 980
complex 979
properties 979
gaming 978
ending 978
ums 977
false 977
gener@@ 977
linux 976
uber 976
istic 976
tar@@ 976
pped 975
mine 975
syllabus 975
calls 975
syn@@ 974
hotels 974
hospital 973
destroy 972
iim 971
shall 971
forget 970
iling 970
dum@@ 969
quit 969
gave 969
efficient 969
work@@ 968
climate 968
rap@@ 967
sla@@ 967
smell 966
stopped 965
statement 965
sch@@ 965
plane 965
keeps 964
alternative 964
officers 964
lo 964
diploma 964
banned 963
sh 963
potter 962
opposite 962
greek 962
install 961
bollywood 961
prison 960
nat@@ 960
bes 960
sbi 960
lon@@ 959
played 959
existence 958
han@@ 957
square 957
aches 956
gandhi 956
random 956
chicken 955
statistics 955
whose 955
saudi 955
length 955
disc@@ 954
stone 954
karnataka 953
upon 953
reli@@ 952
reliable 952
ghts 951
fresher 950
sleeping 950
app@@ 949
elections 949
minutes 949
ji@@ 948
slow 948
pur@@ 947
ph 947
traits 947
path 946
finding 946
press 946
smoking 944
lit@@ 943
begin 943
industrial 943
felt 942
bility 942
bin@@ 942
cases 941
figure 941
promote 941
wordpress 940
low@@ 940
leaving 940
rude 940
taught 940
definition 940
organic 939
foods 939
sol@@ 939
count 938
turning 938
cgl 938
notes 937
tru@@ 936
maintain 936
dr 936
sy 935
heavy 934
cas@@ 934
scholarship 934
database 933
mi 933
italy 933
regret 933
loves 933
weak 932
raise 931
hoo@@ 930
violence 930
accurate 930
gy 930
load 929
pay@@ 929
sexually 929
unit 929
tree 929
historical 928
password 927
james 926
ach 926
navy 926
du 926
tively 925
connected 924
miss 924
hr 923
fiction 923
tered 923
ched 923
glass 923
include 923
malaysia 923
blo@@ 922
fine 922
my 922
leaders 922
sor@@ 921
gn@@ 920
ances 920
pop 920
ency 920
passed 920
attend 920
appropriate 919
direc@@ 919
cross 919
philippines 919
resi@@ 918
mutual 918
recipes 918
duc@@ 918
van@@ 918
experiences 917
fore@@ 917
me 916
club 916
occur 916
bought 916
mars 915
qui@@ 915
ini@@ 915
administration 915
rd 915
matic 914
mentally 914
remain 913
scientists 912
kerala 912
ase 911
predic@@ 911
ideal 908
literature 907
actors 907
sick 907
soci@@ 907
burn 906
patient 906
cook 906
birthday 905
san@@ 905
wood 905
gy@@ 905
define 904
iting 904
terrorist 904
era 904
draw 904
meat 904
cup 904
sky 903
blocked 903
cam@@ 902
evolution 900
hell 900
stomach 900
dance 899
separate 899
pol@@ 899
suitable 899
ici@@ 898
showing 897
highly 897
psycho@@ 896
spouse 896
kim 894
consequences 894
failure 894
airport 893
pretty 892
cycle 892
plan@@ 892
revolution 892
shoes 891
constitution 891
visiting 890
marvel 890
wealth 890
by@@ 890
gue 889
plastic 889
hol@@ 888
chat 886
humanity 886
tax@@ 885
suc@@ 885
onic 884
clothing 884
cab@@ 884
shooting 884
kashmir 884
understanding 884
practical 883
wake 883
elements 883
lam@@ 882
town 882
poli@@ 881
texas 881
beginner 880
strength 880
tam@@ 880
waste 880
nigeria 880
nation@@ 879
strategies 879
telling 879
ethical 878
protein 878
analy@@ 877
commit 877
syria 877
stars 877
ratio 877
whats 876
vin@@ 876
competitive 876
vis@@ 876
acceptable 876
wave 875
businesses 874
actress 874
fac@@ 873
cryptocurrency 873
scientist 872
gpa 871
spain 869
eligible 869
pr 869
swe@@ 868
nic@@ 868
mark@@ 868
lets 868
michael 868
ing@@ 868
goal 868
assistant 867
dan@@ 867
documents 867
gro@@ 867
throughout 866
lying 866
root 866
healthcare 866
fra@@ 865
red@@ 865
happening 864
funny 864
seo 864
ically 864
proper 864
mun@@ 863
calling 863
ready 862
all 862
roman 861
identity 861
ath 861
sity 860
release 860
vari@@ 860
tran@@ 859
sou@@ 859
quorans 858
designing 858
sum 858
organization 857
permanent 857
update 857
asi@@ 857
improved 856
cle@@ 855
willing 855
angle 855
shape 855
crazy 854
agent 853
debt 853
article 853
suffering 852
fighting 851
pop@@ 851
ners 851
images 851
copy 851
logic 850
bet@@ 850
fuel 850
literary 850
tea 850
held 850
ell 849
discovered 849
analytics 849
she@@ 849
spot 848
hat@@ 848
bachelor 847
are@@ 847
nepal 847
ther@@ 847
stam@@ 846
hollywood 846
mouth 846
dislike 846
wer 846
new@@ 845
wel@@ 845
ish@@ 845
rock 845
former 845
tiv@@ 845
btech 845
crisis 844
visi@@ 844
tun@@ 844
firm 843
younger 843
associated 842
nadu 840
ination 839
nt 839
politicians 839
driver 839
cel@@ 838
pla@@ 838
faced 838
criminal 838
mc 838
illness 838
romantic 837
criteria 836
ct 836
pool 836
ticket 835
childhood 835
modi@@ 835
turkish 835
guitar 835
prote@@ 834
asians 833
queen 833
official 833
fan 832
equivalent 832
charges 831
senior 831
fill 831
activity 831
ner@@ 831
vehicle 830
helpful 830
virtual 830
electronic 830
emotions 829
putin 829
gym 829
hel@@ 829
and 829
mate 829
velocity 828
solutions 828
msc 828
similarities 828
mur@@ 828
snapchat 828
feels 828
knows 828
ory 828
deleted 827
park 827
mem@@ 826
friendly 826
ans@@ 825
designer 824
ful@@ 824
ron@@ 823
comment 823
ist@@ 823
zo@@ 823
properly 823
ki 822
rejected 821
quota 820
tan 820
ll@@ 820
sides 820
oxygen 820
added 819
non@@ 819
safety 819
motor 819
steel 819
religions 819
cru@@ 818
obc 818
idi@@ 818
hood 818
ental 818
nose 817
forward 817
obsessed 816
cks 816
several 815
vel@@ 815
teenager 815
dre@@ 815
released 815
placed 815
clu@@ 814
till 814
ack@@ 814
sy@@ 813
relations 813
bangladesh 813
offered 812
aircraft 811
atheist 811
wards 811
powers 810
arms 810
ric 810
vir@@ 810
len@@ 810
liquid 810
startups 809
stor@@ 809
lers 809
writers 809
learned 809
grades 808
arian 807
nam@@ 807
ships 807
rates 807
worried 806
policies 806
prices 806
ey 806
oper@@ 806
whenever 805
divorce 805
blind 805
ker@@ 805
primary 804
weed 804
broke 804
mistake 804
poem 803
offers 803
cheating 803
pursuing 802
academy 802
gap 802
spo@@ 802
eter 801
australian 801
internal 801
hide 800
ple@@ 798
ck@@ 798
mm@@ 798
af@@ 797
greater 797
thinks 797
ino 797
jam@@ 796
ri 796
fun@@ 795
woo@@ 795
trouble 795
sold 794
multi@@ 794
ignore 793
mp 793
cry 793
son@@ 793
sus@@ 793
repe@@ 793
pure 793
consideration 792
agency 792
ze@@ 792
feature 791
gan 791
direction 790
ama 790
removed 790
notice 789
volume 789
print 788
audi@@ 788
mil@@ 788
moral 788
ref@@ 788
ize 787
jio 787
factor 787
kg 787
phase 786
federal 785
certification 785
charged 785
ards 784
relevant 784
attacks 783
detec@@ 783
george 782
jealous 782
acts 782
que@@ 781
owner 781
target 781
flag 781
emotionally 781
workout 780
ble@@ 780
bond 780
naturally 780
republican 779
goals 779
medium 779
forced 779
tin 779
conf@@ 779
log 779
limited 778
workers 778
verse 777
ku@@ 777
christ 777
fields 775
eventually 775
ol 775
degrees 775
bus@@ 774
ries 774
dic 774
rice 773
register 773
sha@@ 773
wri@@ 772
ape 772
rel@@ 772
ireland 771
films 771
bc 771
six 771
republic 771
ump 770
voltage 770
ate@@ 770
episode 769
conflict 769
ry@@ 769
artist 768
ie 768
aging 768
adap@@ 768
stable 768
russians 768
kur@@ 767
pp@@ 767
boss 767
oun@@ 767
mus@@ 767
inte@@ 767
specifically 766
magnetic 766
suit 766
educated 766
arabia 766
pi 766
gb 766
mid 765
increasing 765
alization 765
oph@@ 765
decent 765
customers 764
quotes 763
traveling 763
fying 763
eastern 762
apo@@ 762
arab 762
bi 762
semester 761
superior 761
ession 761
developers 761
foot 761
jec@@ 760
spon@@ 759
int 759
murder 759
js 759
lar@@ 758
tourist 758
iled 758
campaign 758
response 758
yp@@ 757
mic@@ 756
crimes 755
harvard 755
examination 755
worked 755
accounting 755
cutoff 754
opportunity 754
black@@ 754
athy 754
judge 754
hydro@@ 753
mic 753
unable 753
hydrogen 753
hope 753
tom@@ 753
secure 752
grand@@ 752
equ@@ 751
blacks 751
winter 751
bly 751
effectively 751
ali 750
keeping 749
ets 749
motion 748
taining 748
chain 747
habits 747
nazi 747
items 747
standing 747
fle@@ 746
tank 746
tired 746
kan@@ 746
region 746
skill 745
exact 745
setting 745
acks 743
tly 743
posi@@ 743
push 743
uk@@ 743
ther 743
manipal 742
contrac@@ 742
italian 742
posts 742
virus 742
soft 742
ir 741
wan@@ 741
models 740
smoke 740
generate 740
dies 740
established 740
ee 739
ples 739
any@@ 739
terrorism 739
caught 738
ects 737
reference 736
florida 735
fr@@ 735
meeting 735
sle@@ 734
bat@@ 734
christmas 734
guilty 734
ow@@ 734
psychopaths 733
marijuana 733
reali@@ 733
hyper@@ 733
smartphone 733
mistakes 732
mac 732
resume 732
contract 732
zealand 732
fastest 731
harm 731
completed 731
shares 731
nom@@ 730
blame 730
cin@@ 730
title 730
rela@@ 729
mix 729
bba 729
monthly 729
isis 728
legs 728
terrorists 728
stronger 728
refuse 728
fire@@ 727
throw 727
determined 727
valid 727
oring 727
abilities 726
contribute 726
paul 726
wed 726
mad 726
beneficial 726
arabic 725
mr 725
hostel 725
cc 724
bic 724
plans 724
friendship 724
cream 724
mir@@ 724
gre 724
pes 724
tures 723
lawyer 723
forever 723
ane 723
visible 723
initi@@ 723
galaxy 722
becomes 722
tall 722
computers 722
adi@@ 722
lun@@ 721
graduates 721
kept 721
defeat 721
analyst 720
sheet 720
communist 720
frequency 719
ll 719
percent 719
lied 719
fication 719
opt 718
scene 718
travelling 718
ot 718
oni@@ 718
candidates 718
narcissistic 716
starts 716
roll 716
walking 716
algorithm 716
arch@@ 715
employer 715
dish 715
atory 715
obtain 715
ater 715
refer 714
ani 714
passing 714
transgender 714
adults 714
nowadays 714
shor@@ 713
confidence 713
ear 713
cement 713
tile 713
affordable 713
breaking 712
dumb 712
happiness 711
cy 711
mode 711
ina 711
iness 711
males 711
stick 711
fas@@ 711
graph 710
tier 710
hiring 710
royal 709
plate 709
articles 709
tis@@ 709
nee@@ 709
coin 708
fel@@ 708
button 708
kno@@ 707
robert 707
esh 707
twin 707
infinity 707
brands 707
dying 707
its 706
naruto 706
pun@@ 706
ef 706
ected 705
pass@@ 704
twice 704
psychological 704
exercises 704
ja 704
spec@@ 704
marine 703
independence 702
seats 702
ily 701
ide@@ 701
feminists 701
yer 701
dom@@ 701
yellow 701
mas@@ 700
suffer 700
vie@@ 700
pradesh 700
spread 700
loo@@ 700
pit@@ 700
programmer 699
harmful 699
cha@@ 699
beliefs 699
cular 699
trac@@ 699
fresh 699
nit@@ 699
calories 699
selection 699
parties 699
latin 698
sql 698
bers 698
zer 698
ligh@@ 698
ises 697
admit 697
decided 697
goo@@ 697
females 696
lots 696
acted 696
smo@@ 696
scenario 696
realistic 696
provided 695
drawing 695
ama@@ 695
existing 695
soccer 695
mentioned 695
mul@@ 695
mag@@ 694
shoot 694
roo@@ 694
radio 694
rom@@ 694
restaurants 693
advertising 693
batman 693
babies 692
ony 692
border 692
arabs 690
rat 690
shift 690
waves 690
graphy 690
appro@@ 690
vice 690
island 690
defense 690
motivated 689
falling 689
photo@@ 689
shar@@ 689
jud@@ 689
threat 688
sweden 688
ick@@ 688
named 687
advance 687
beginning 686
putting 686
om 686
py 686
ore@@ 686
cher 685
ala 685
port 685
epi@@ 685
aspects 685
recipe 684
sab@@ 683
launch 683
pattern 683
map 683
vic@@ 683
disp@@ 683
demon@@ 683
sir 683
consul@@ 682
faith 682
salt 682
gging 681
quar@@ 681
ices 681
ame 681
possibility 680
tom 680
profitable 680
flying 680
ound 679
play@@ 679
abusive 679
solved 679
differently 679
qualities 679
est@@ 679
recommended 678
extreme 678
tells 678
stal@@ 678
stores 678
tesla 677
delivery 677
professor 677
chat@@ 677
pose 677
sl@@ 677
khan 676
los 676
circuit 676
leading 676
technologies 675
ah@@ 675
after@@ 675
apartment 675
sale 674
han 674
conver@@ 674
fans 674
reservation 673
ght 673
speakers 673
human@@ 673
inten@@ 672
toler@@ 672
sap 672
html 671
nav@@ 671
solid 671
travel@@ 671
valley 671
extent 671
lea@@ 670
paint 670
exists 670
bla@@ 670
wire 670
whe@@ 670
tt 669
overall 669
request 668
ction 668
funding 667
bab@@ 667
genetic 667
soviet 666
investors 666
dead@@ 665
pping 665
audio 664
filled 664
tations 664
greece 664
dou@@ 663
minor 663
scored 663
anger 663
educational 662
hab@@ 662
ital 662
hinduism 662
missing 661
sett@@ 661
billion 661
objects 660
rer 660
graph@@ 660
gh 659
eral 659
icse 659
met@@ 658
closed 658
som@@ 658
represent 658
plot 658
ously 658
kal@@ 658
meter 657
amazing 657
proud 657
fixed 657
chest 657
finally 657
settings 657
tism 657
novels 656
tu 656
beauty 656
corruption 656
cos 655
david 655
concepts 655
ano@@ 655
wash 654
helped 654
domestic 654
guide 654
ours 654
standards 654
opinions 653
determin@@ 653
govt 653
decrease 653
combat 653
php 652
upcoming 652
maharashtra 652
gal@@ 652
javascript 652
ola 652
armed 651
may@@ 651
web@@ 651
occu@@ 651
soul 651
rooms 651
reasonable 650
reply 650
harder 650
lady 649
ocean 649
argument 649
seriously 649
violent 649
citizenship 649
processing 648
pen 648
ethnic 648
lived 647
singer 647
circle 647
netflix 647
counselling 647
comfortable 647
committed 646
phrase 646
condi@@ 646
registration 646
cultures 645
adv@@ 645
capable 645
tured 645
lesser 644
error 644
concrete 644
sia 644
exc@@ 643
speaker 643
formation 643
glasses 643
egypt 643
pull 643
opening 643
optional 643
tele@@ 642
organizations 642
neighborhoods 642
biological 642
min 642
scratch 642
reg@@ 642
vacation 641
nda 641
abortion 641
tough 641
zone 641
insul@@ 641
inations 641
perspective 641
glo@@ 640
client 640
quran 640
germans 640
bad@@ 640
boun@@ 640
sport 639
located 639
dual 639
ational 639
some@@ 639
script 638
genuine 637
knew 637
stan@@ 637
tcs 637
foreigners 637
innocent 637
smaller 636
vert 636
loc@@ 636
television 636
lism 636
mm 636
ple 635
dollar 635
employment 635
break@@ 635
mid@@ 635
assume 635
run@@ 635
brazil 635
meth@@ 634
resistance 634
letters 634
industries 633
mathematical 633
graphics 632
ip 632
ray 632
shel@@ 632
dev@@ 632
resp@@ 632
asks 631
magic 631
fc 631
compli@@ 630
environmental 630
lia 630
motivation 630
insi@@ 630
dge 630
israeli 630
va@@ 630
srm 630
mation 629
followed 629
studio 629
kinds 629
surpri@@ 629
basketball 628
li 628
tons 628
revol@@ 627
helps 627
drop@@ 627
channels 627
tus 627
planets 627
pel@@ 626
dig@@ 626
fru@@ 626
kong 626
dro@@ 626
noida 626
annoying 625
lli@@ 625
ride 625
ulate 625
soil 625
fuck 625
bone 625
key@@ 625
ishing 624
tory 624
eggs 624
vio@@ 624
electron 623
eds 623
deal@@ 623
distribution 623
aller@@ 623
upper 622
mol@@ 622
yers 622
prince 621
pressed 621
ati 621
rest@@ 621
honest 621
irs 621
mining 620
cour@@ 620
ulated 620
tivity 619
viol@@ 619
schedule 619
eve 619
external 618
tate 618
bengal 618
ren 618
alize 617
claims 617
portra@@ 617
ong 617
relative 616
gmail 616
read@@ 616
law@@ 616
bol@@ 616
dated 615
shopping 615
totally 615
respon@@ 614
shy 614
oid 614
poverty 614
serv@@ 614
automatically 613
lou@@ 613
sri 613
consi@@ 613
owners 613
illi@@ 613
reverse 613
commit@@ 613
avi@@ 613
tra 612
theories 612
thesis 612
boring 612
dia 612
provides 612
execu@@ 612
sim 612
prior 612
disney 612
shown 612
links 611
mb@@ 611
asing 610
families 610
roles 610
alized 610
wild 610
vers 610
free@@ 610
sensitive 610
universal 610
ml 610
pu 610
psychopath 610
od@@ 609
executive 609
oned 609
meditation 609
sham@@ 609
meal 609
increased 608
competition 608
diagnosed 607
aid 607
ok@@ 607
possibly 606
washington 606
econom@@ 606
implement 606
mixed 606
shu@@ 605
blog@@ 605
wwii 604
gram 604
classical 604
sad@@ 604
tioning 604
jail 604
patients 604
unknown 604
personally 603
stuck 603
gor@@ 603
musk 603
balls 603
bles 603
ata 602
ium 602
costs 602
beyond 602
ep 602
ption 602
ii@@ 602
causing 602
far@@ 602
custom 602
auto@@ 602
liked 602
designed 601
signed 601
theme 601
person@@ 601
sup@@ 601
stic@@ 600
zes 600
automation 600
teenagers 600
contain 600
wanting 600
southern 600
auto 600
sd 600
cooking 600
ket@@ 600
lock 600
survi@@ 599
rain 599
teenage 599
terri@@ 599
shit 599
fro@@ 598
clients 598
mature 598
immediately 598
spring 598
moved 598
dation 598
weapon 598
autism 597
mates 596
sounds 596
bom@@ 596
element 596
blockchain 596
kiss 596
critical 595
elec@@ 595
prospects 595
elon 595
leaves 595
fox 595
cali@@ 595
ut 595
susp@@ 595
habit 595
palestinians 594
home@@ 594
rol@@ 593
narendra 593
bag 593
enjo@@ 593
yoga 593
glob@@ 592
holding 592
secu@@ 592
sul@@ 592
anywhere 592
travelers 592
explanation 591
ld 591
syndrome 591
inner 591
photography 591
of@@ 590
shirt 590
flash 590
kingdom 590
satis@@ 590
foo@@ 589
defend 589
addiction 589
themes 589
bird 588
earning 588
foundation 588
waiting 588
spoken 588
ati@@ 588
storage 587
ann@@ 587
tin@@ 587
bodies 587
aged 587
hop@@ 587
spending 586
anonymous 586
fbi 586
format 586
strange 586
ized 586
sitting 585
ey@@ 585
pages 585
worthy 585
whites 585
iler 585
dragon 584
bas@@ 584
productive 584
achieved 584
raw 584
docum@@ 583
author 583
gin@@ 583
excel 583
library 583
lazy 583
northern 582
foun@@ 582
facing 582
eye@@ 582
attract 582
split 581
loud 581
broad@@ 581
density 581
goods 581
atom 581
viewed 581
gation 581
ene 580
deserve 580
worker 580
catholic 580
narcissists 580
spots 580
jet 579
practices 579
tag@@ 579
publish 579
ush@@ 579
bo 579
routine 579
emp@@ 579
alists 578
gurgaon 578
ians 578
catch 578
punishment 578
hair@@ 578
val 578
assuming 578
wil@@ 578
entary 578
dness 577
mirror 577
ids 577
sue 577
equipment 577
hard@@ 577
drivers 576
mu 576
ron 576
lan 576
astro@@ 576
repair 576
fighter 575
concerned 575
select 575
operating 575
belong 575
tari@@ 575
impe@@ 575
feminism 574
scri@@ 574
ky@@ 574
finish 574
hero 574
fi 574
essential 574
impossible 574
ick 573
escape 573
pted 573
mission 572
diff@@ 572
urine 572
ups 572
fic@@ 572
hearing 572
virgin 572
lations 571
water@@ 571
quick 571
aliens 571
accidentally 571
tain 571
registered 571
correc@@ 570
em 570
high@@ 570
eco@@ 570
crow@@ 570
millions 570
pdf 570
sig@@ 569
frac 569
couples 569
supreme 569
termin@@ 569
cgpa 569
beings 569
wifi 569
anda 568
represen@@ 568
mess@@ 568
institutes 568
breast 568
eee 567
whit@@ 567
revenue 567
lifestyle 567
linear 567
qualified 567
creation 567
quite 567
trees 567
naked 567
pack 566
included 566
bottom 566
civilization 566
retail 565
upload 565
conscious 565
successfully 565
sky@@ 565
din@@ 564
equity 564
iiit 564
protection 564
bitsat 564
arguments 564
amendment 563
voted 563
nasa 563
corrupt 563
sharing 562
terrible 562
mention 562
neck 562
ising 562
ang 561
wind 561
markets 561
birds 561
unt 561
bud@@ 561
hip 561
oli@@ 561
conduct 561
ut@@ 560
therapist 560
display 560
francisco 559
thri@@ 559
refugees 559
linkedin 559
conce@@ 558
floor 558
solving 558
ffe@@ 558
ug@@ 558
eli@@ 558
ceo 558
hidden 558
poo@@ 558
rable 557
fantasy 557
teams 557
opposed 557
paris 556
weak@@ 556
ust 556
leg 556
pakistanis 556
socially 556
houses 556
noticed 555
chess 555
mes@@ 555
situations 555
illu@@ 555
artists 555
nel 555
host 555
youth 555
bang@@ 554
ware 554
ielts 554
max 554
visual 553
os@@ 553
ham 553
hong 553
pollution 553
clearly 553
bridge 553
individuals 553
art@@ 552
astic 552
scores 552
preven@@ 552
sets 552
ensure 552
parallel 552
kar 552
piano 551
fictional 551
algorithms 551
bun@@ 551
shipping 551
mg 551
aching 550
baseball 550
iss 549
ro 549
num@@ 549
signal 549
upset 549
sodium 549
wealthy 548
astr@@ 548
river 548
reviews 547
goa 547
nesses 547
bomb 547
macbook 546
ero@@ 546
acne 546
cheat 546
severe 546
celebrity 546
ache 546
minute 546
radiation 546
indic@@ 546
inspiration 546
elling 545
percentile 545
demo@@ 545
finger 545
stat@@ 545
thu@@ 545
ran 545
fluid 545
sco@@ 545
arri@@ 545
logically 544
allen 544
tricks 544
onal 544
context 544
geo@@ 544
masturbate 544
muhammad 544
requ@@ 544
singh 543
sending 543
cles 543
trends 543
ipl 543
lens 543
mari@@ 543
supporting 542
empty 542
vali@@ 542
ably 542
belly 542
valuable 542
celebrities 541
superman 541
ough 541
tac@@ 541
iring 541
masturbation 541
rin@@ 541
racial 541
vehicles 541
badly 540
xes 540
chi 540
spiritual 540
mp@@ 540
one@@ 540
chicago 540
sand@@ 540
confused 540
var@@ 539
egg 539
ssi@@ 539
entation 539
chil@@ 538
duty 538
heaven 538
grown 538
behave 538
communicate 538
insp@@ 538
networks 538
staff 538
expla@@ 537
william 537
machines 537
ective 537
jaipur 537
coins 537
ute 537
interviews 537
atomic 537
nec@@ 537
batch 537
comics 537
gear 537
lowing 536
ford 536
gujarat 536
voting 536
suggestions 536
observ@@ 536
ym@@ 536
inc 536
passion 536
won@@ 536
gur@@ 536
elected 535
ken 535
rative 535
forest 535
justify 535
afford 535
recognize 535
fruit 535
confident 535
director 534
propaganda 534
colors 534
awkward 534
perce@@ 534
ive 533
mas 533
sen 533
entrepreneur 533
railway 533
divided 533
wine 533
cking 533
silver 533
arm@@ 532
larger 532
tickets 532
rus@@ 532
dering 532
stanford 532
sore 532
sses 532
ken@@ 532
cir@@ 532
vering 532
sum@@ 531
fired 531
absor@@ 531
eless 531
desi@@ 531
counter 531
down 531
succeed 531
slavery 531
dest@@ 531
destroyed 530
everybody 530
proven 530
brought 530
listening 530
secondary 530
loving 529
june 529
prophet 529
agreement 528
chocolate 528
fe 528
xing 528
presidential 527
crypto 527
toxic 527
accent 527
jack 527
hack 527
accident 527
communism 527
osc@@ 526
mo 526
positions 526
periods 526
import 526
struc@@ 526
particle 526
laun@@ 526
tch 525
operations 525
whi@@ 525
comic 525
hardware 525
winning 525
participate 524
ni 524
brexit 524
eters 524
subscri@@ 524
messenger 524
hem@@ 523
ion 523
ax 523
helping 523
inal 523
decisions 523
nobody 523
ening 522
studied 522
nba 522
permit 522
selfish 522
bil@@ 522
pon@@ 521
improvement 521
dom 521
loaded 521
rings 521
permanently 521
holes 521
allah 521
animation 521
doc@@ 520
factory 520
cheated 520
ened 520
ato 520
pres@@ 520
moder@@ 519
replaced 519
capacity 519
bacteria 518
ordinary 518
kit@@ 518
agriculture 518
fa 518
rational 517
deb@@ 517
credi@@ 517
concer@@ 517
ptions 517
conduc@@ 517
api 517
africans 517
jer@@ 516
cc@@ 516
cia 516
fer 516
ambi@@ 516
beginners 516
document 515
published 515
foot@@ 515
cant 515
electrons 515
prostitu@@ 515
vietnamese 515
emer@@ 515
profession 515
seek 515
crash 515
gf 515
computing 515
actu@@ 515
anyway 514
ished 514
chan@@ 514
allies 514
singing 514
raj@@ 513
networking 513
saved 513
belief 513
pin@@ 513
fan@@ 513
mad@@ 513
toilet 513
outs 513
muscles 513
complain 512
sciences 512
agre@@ 512
grammar 512
offline 512
implemented 512
aming 512
beach 512
ection 512
staying 511
thailand 511
kings 511
mar 511
nyc 511
concentration 511
mon 510
exce@@ 510
saving 510
golden 510
shut 510
mexican 510
choosing 510
cake 510
rifle 509
lee 509
yrs 509
collec@@ 509
identi@@ 509
ego 509
hardest 509
gotten 509
burning 509
valu@@ 508
les@@ 508
automatic 508
planes 508
appeared 508
march 508
mechanism 508
mangalore 508
permission 508
ays 508
tter 508
musical 508
holocaust 507
oning 507
smarter 506
dirty 506
suck 506
particles 506
desktop 506
victim 506
quote 506
dose 506
supp@@ 505
sons 505
bipolar 505
hypo@@ 505
biased 505
hp 505
hosting 505
aria 505
eg@@ 504
mtech 504
minority 504
usage 504
painful 504
diseases 504
pain@@ 504
fitness 504
rul@@ 504
chlor@@ 504
governments 504
gods 504
sight 503
tes@@ 503
hacking 503
stry 503
faces 503
kel@@ 503
cheaper 503
multi 503
stranger 503
iits 503
scam 502
urban 502
optim@@ 502
dol@@ 502
ug 502
heads 501
manufactured 501
presidency 501
bts 500
powder 500
bread 500
aled 500
overrated 500
km 500
contin@@ 500
iraq 500
tee 500
meth 500
descri@@ 500
cent 500
provider 499
protec@@ 499
cryptocurrencies 499
gi 499
vegan 499
param@@ 499
string 499
challenge 499
assault 499
imagin@@ 499
keys 499
noise 498
firms 498
agencies 498
rbi 498
tel@@ 497
lish 497
gly 497
ssed 497
sufficient 497
tex@@ 497
dick 497
power@@ 496
although 496
captain 496
martial 496
ome 496
ka@@ 496
turks 496
nazis 496
organ@@ 496
ena 495
typically 495
enemy 495
pizza 495
progress 494
prepared 494
juice 494
settle 494
angular 494
uae 494
miles 493
deny 493
debate 493
attitude 493
talks 493
blin@@ 492
window 492
somehow 492
rage 492
lessons 492
silicon 492
promo@@ 492
ank 492
lonely 492
fs 491
iso@@ 491
wrote 491
alien 491
lift 491
incident 491
dle 491
vagina 491
slaves 490
resear@@ 490
adver@@ 490
irish 490
financially 490
rap 490
painting 490
cl 490
pills 490
junior 489
frame 489
ncert 489
frac@@ 489
operation 489
dish@@ 489
chandigarh 488
absolute 488
relate 488
hated 488
maybe 488
useless 488
strongest 488
distr@@ 488
comple@@ 488
defined 488
raped 488
au 487
founded 487
ei@@ 487
fran@@ 487
debit 487
vit@@ 487
biotechnology 487
joke 487
propor@@ 487
addic@@ 487
adopt 486
electro@@ 486
controversial 486
index 486
functional 486
victims 485
wers 485
equality 485
sphere 485
ancy 485
ui 485
discrimination 485
hiv 485
interior 484
nervous 484
aling 484
gover@@ 484
looked 484
batt@@ 483
rob@@ 483
frequently 483
throat 483
funniest 483
pounds 483
qualify 483
answering 483
ories 482
lab 482
investi@@ 482
thin 482
toronto 482
aws 482
sub 482
whatever 482
achiev@@ 482
hen@@ 482
desire 482
gen 482
poland 482
politician 481
dental 481
leadership 481
influ@@ 481
keyboard 481
editing 481
ov@@ 481
ail 481
introvert 481
obvious 481
imagine 481
static 480
thrones 480
infosys 480
atoms 480
indonesian 480
interests 480
oh 480
mountain 479
ased 479
behaviour 479
cutting 479
aps 479
partners 479
loose 479
weigh@@ 479
pcm 479
tually 479
evolve 479
remote 478
covered 478
attraction 478
airlines 478
ences 478
principle 478
mandatory 477
guard 477
output 477
counter@@ 477
memories 477
weekends 477
warming 477
linked 477
cable 477
ignorant 476
silent 476
yl 476
technique 476
translation 476
stem 476
slave 476
continu@@ 476
archy 476
scand@@ 476
tc 476
steve 476
rt 476
che 476
tour 476
comman@@ 475
jackson 475
holiday 475
facial 475
infinite 475
magne@@ 475
oral 475
tuition 474
cyber 474
defin@@ 474
hd@@ 474
privacy 474
snow 474
bow 474
tle 473
charging 473
alternatives 473
lights 473
emails 473
reta@@ 473
geography 473
celebrate 473
clubs 473
rain@@ 473
controlled 472
mongo@@ 472
tomorrow 472
iles 472
transport 472
dor 472
tish 471
sat@@ 471
rahul 471
edition 471
components 470
protected 470
treatments 470
chosen 470
utili@@ 470
returns 470
division 469
allows 469
ssb 469
radi@@ 469
bay 469
stephen 469
einstein 469
april 468
lec@@ 468
posting 468
beli@@ 468
lac@@ 468
petrol 468
taiwan 468
wives 468
processor 468
ached 468
wide 468
instruc@@ 467
emergency 467
colle@@ 467
bear 467
lowest 467
soldier 467
ib 467
deli@@ 467
ada 467
ris 467
pois@@ 467
io@@ 466
fundamental 466
sation 466
swimming 466
formal 466
aqu@@ 465
atic 465
earlier 465
bang 465
hatred 465
weirdest 465
paypal 465
dest 464
carrier 464
aband@@ 464
wo@@ 464
dor@@ 464
wallet 464
holy 464
diversity 464
gression 464
aerospace 464
overseas 463
mcu 463
dam@@ 463
rence 463
sample 463
tual 463
ferences 463
class@@ 463
dal@@ 463
worship 463
retirement 463
flame 463
proto@@ 462
sid@@ 462
bf 462
ports 462
engines 461
advis@@ 461
lists 461
illa 461
massive 461
secretly 461
described 461
logists 461
manual 460
compound 460
atmosphere 460
soli@@ 460
associate 460
export 460
structures 460
ests 460
warm 460
gang@@ 460
than@@ 460
solo 459
sr@@ 459
leads 459
www 459
uring 459
tou@@ 459
mechanics 459
civili@@ 459
triangle 459
cheese 459
ranking 458
pets 458
sav@@ 457
objec@@ 457
main@@ 457
affiliate 457
raised 457
extrac@@ 457
politically 457
tongue 457
deman@@ 457
form@@ 457
copper 457
pump 456
seconds 456
lingu@@ 456
longest 456
berg 456
lay 456
stor 456
initial 456
thousands 456
affairs 456
edit 456
catal@@ 456
discrimin@@ 456
cost@@ 456
thomas 456
mali@@ 456
pair 456
makeup 455
records 455
reci@@ 455
contribu@@ 455
beer 455
recei@@ 455
pep@@ 455
grand 454
stance 454
wireless 454
regularly 454
conspiracy 454
consumer 454
spent 454
cousin 453
ny@@ 453
sty 453
jong 453
inch 453
deposit 453
ological 452
framework 452
franchise 452
orange 452
advoc@@ 452
pokemon 452
platforms 452
heal 452
genocide 452
cap 452
aph@@ 452
criminals 451
bloo@@ 451
sudden 451
monitor 451
champi@@ 451
joined 451
arrested 451
recruitment 450
horrible 450
eting 450
za 450
rocket 450
strate 450
character@@ 450
treating 450
gordon 450
mes 450
trend 450
aside 450
compulsory 450
neural 450
programme 450
summary 449
parti@@ 449
yan 449
homeless 449
afghanistan 449
versa 449
dist@@ 449
charles 449
git@@ 449
clat 449
ami 448
medieval 448
asp@@ 448
teens 448
dates 448
ab 448
irri@@ 448
miller 448
palestine 448
fici@@ 448
housing 448
aring 448
tennis 448
forgive 447
portfolio 447
attached 447
brothers 447
sac@@ 447
aks 447
chrome 447
ano 447
advan@@ 447
bored 447
agents 447
manga 446
sex@@ 446
struggle 446
effort 446
bis@@ 446
listed 445
fault 445
usb 445
isro 445
gle 445
hacks 445
holder 445
anno@@ 445
input 444
foreigner 444
organi@@ 444
beef 444
integrate 444
filter 444
eing 444
experiment 444
ood 444
scal@@ 443
wol@@ 443
immigrant 443
existed 443
hang 443
ims 443
yl@@ 443
sni@@ 443
tancy 443
sociopath 443
ot@@ 443
strike 443
feminist 443
smith 442
pieces 442
edge 442
jump 442
vector 442
tia 442
wonder 442
ile 442
chart 442
talent 442
disabled 441
ack 441
certific@@ 441
cancel 441
tain@@ 441
submit 441
vegetarian 441
tourism 441
nick@@ 441
aggressive 441
worry 441
consulting 440
dominant 440
offensive 440
calculus 440
detect 440
photograph@@ 440
kat@@ 440
nfl 439
stack 439
bullet 439
principles 439
dem@@ 439
intellectual 439
ason 439
responsibility 439
persons 439
acqui@@ 439
pap@@ 439
tend@@ 439
rare 438
rental 438
binary 438
tum@@ 438
presence 438
founder 438
sour@@ 437
investigation 437
ram@@ 437
contacts 437
plat@@ 437
uncomfortable 437
preferred 437
cham@@ 437
xi 437
remedies 437
wa 437
normally 437
dropped 437
oldest 437
december 437
ini 437
essi@@ 437
cow 436
ari 436
night@@ 436
fit@@ 436
eti@@ 436
tho@@ 436
gged 435
consume 435
freelance 435
iner 435
upvotes 435
scoring 435
dat@@ 434
discover 434
clean@@ 434
internships 434
infection 434
consciousness 434
appe@@ 434
expert 434
heal@@ 434
denti@@ 433
bet 433
acked 433
authority 433
thin@@ 433
anism 433
dx 433
tx 433
offended 433
races 432
ville 432
tune 432
ania 432
mono@@ 432
switzerland 432
savings 432
accur@@ 432
autistic 432
appearance 432
erec@@ 431
krishna 431
bai@@ 431
ous@@ 431
answered 431
rome 431
peter 431
cd 431
boost 431
washing 431
camp 431
fell 431
corporation 430
buff@@ 430
appli@@ 430
sor 430
branches 430
tol@@ 430
secular 430
migr@@ 430
entertainment 430
lity 430
calcu@@ 429
ket 429
breed 429
pad@@ 429
ities 429
tail 429
eding 429
peaceful 429
dependent 429
symp@@ 429
automobile 429
bca 429
dutch 428
lay@@ 428
somewhere 428
billi@@ 428
consultant 428
py@@ 428
collapse 428
episodes 428
wikipedia 428
eff@@ 428
variable 428
bottle 428
clinical 428
journey 427
homosexuality 427
mani@@ 427
ima@@ 427
dealing 427
coach 427
homo@@ 427
ange@@ 427
session 427
ghost 427
ulation 426
deriv@@ 426
blogs 426
bite 426
cute 426
newspaper 426
thank 426
gic 426
item 426
veter@@ 426
smallest 425
rupees 425
negoti@@ 425
luc@@ 425
netherlands 425
objective 425
absolutely 425
mal 425
onto 425
horse 425
announ@@ 425
crying 425
chy 425
gar 425
affects 425
passive 425
logist 425
coll@@ 425
laugh 424
mitted 424
ance@@ 424
yr 424
alter@@ 424
medication 424
ipad 424
auth@@ 424
amed 424
hs 424
adhd 424
missed 424
minorities 423
layer 423
lif@@ 423
deduc@@ 423
however 423
punjab 423
diesel 423
texts 423
berry 423
lakhs 423
defence 423
pier@@ 423
refl@@ 423
truck 423
predict 423
laser 422
motivate 422
hypocri@@ 422
bow@@ 422
cleaning 422
admitted 422
separ@@ 422
browser 421
resource 421
dun@@ 421
conserv@@ 421
kick 421
classic 421
tial 421
careers 421
rat@@ 421
acceler@@ 421
pressive 421
construc@@ 420
cognitive 420
obs@@ 420
activ@@ 420
steal 420
adam 420
ential 420
minim@@ 420
sand 420
ived 420
dynamics 420
panic 420
laptops 420
wheel 420
consum@@ 420
oxide 420
facilities 420
tative 420
replacement 420
umps 420
stops 419
steam 419
bias 419
shower 419
remo@@ 419
istics 419
ultimate 419
model@@ 419
combination 419
serving 419
pink 419
grey 419
veri@@ 419
airline 419
operate 419
breasts 418
ips 418
symbol 418
ivy 418
roman@@ 418
richard 418
gun@@ 417
stin@@ 417
falls 417
dinner 417
undergrad 417
angeles 417
intel 417
jan 417
peri@@ 417
democrat 417
tility 417
sequ@@ 417
fli@@ 417
probably 417
bpd 417
particip@@ 417
outcome 416
transition 416
cer 416
addicted 416
capac@@ 416
greeks 416
alist 416
simultaneously 416
semi 416
stored 415
route 415
commission 415
decreas@@ 415
expression 415
resident 415
integrated 414
dynamic 414
turns 414
rou@@ 414
fusion 414
reject 414
gressi@@ 414
poetry 414
fifa 413
tie 413
stration 413
vac@@ 413
communic@@ 413
odd 413
sp 413
chief 413
ied 413
bir@@ 412
dity 412
serial 412
yo 412
ukraine 412
command 412
gdp 412
circum@@ 412
dep@@ 412
ashes 412
temple 412
acceleration 412
managed 412
ara 411
tablet 411
digit 411
plas@@ 411
hurting 411
bhu 411
allo@@ 411
thy@@ 411
wal 410
tooth 410
purposes 410
tating 410
receiving 410
koreans 410
bal 410
sional 410
copyright 410
cial 410
book@@ 410
up 410
transmission 410
arily 409
spider 409
su 409
bene@@ 409
ight 409
usd 409
busy 409
recru@@ 408
logo 408
iv@@ 408
mosqu@@ 408
ensive 408
isc 407
homemade 407
ong@@ 407
voters 407
abo@@ 407
bling 407
collection 407
mock 407
ingly 407
dresses 407
ght@@ 407
list@@ 407
master@@ 407
prof@@ 406
prin@@ 406
costume 406
skinny 406
investments 406
nia 406
open@@ 406
filling 406
vacc@@ 406
closer 406
chur@@ 406
nate 406
ser 406
grad 406
sik@@ 405
ature 405
professionals 405
hates 405
rating 405
drunk 405
nc 405
aya 405
reputation 405
sole 405
spiri@@ 405
tians 405
paren@@ 405
pil@@ 405
ense 405
hyp@@ 404
july 404
providing 404
ements 404
kitchen 404
stolen 404
fb 404
album 404
obli@@ 404
sorry 404
pan 404
basics 404
poss@@ 404
loans 403
description 403
cast@@ 403
worldwide 403
but@@ 403
adding 403
mor 403
weekend 403
literally 403
bert 403
itation 403
avengers 403
athle@@ 403
jack@@ 403
verification 403
cher@@ 402
telugu 402
watched 402
dra 402
consent 402
units 402
metro 402
trial 401
categ@@ 401
vin 401
net@@ 401
converted 401
brain@@ 401
declared 401
measures 401
shared 401
produc@@ 401
household 401
expenses 401
flights 400
ome@@ 400
fruits 400
wet 400
fal@@ 400
bell 400
comb@@ 400
chronic 400
arc@@ 400
ux 400
ideology 400
ax@@ 400
shootings 400
none 400
compu@@ 399
fraud 399
reve@@ 399
tely 399
ko 399
oracle 399
tica 399
ually 399
neutral 399
focused 399
canadians 398
psu 398
annual 398
professors 398
dam 398
jac@@ 398
carri@@ 398
dence 398
kidney 398
green@@ 398
ques@@ 398
mueller 398
axis 398
divide 398
scop@@ 398
gul@@ 397
heart@@ 397
classified 397
tries 397
boy@@ 397
mary 397
alty 397
additional 397
horror 397
ysis 397
rab@@ 397
institutions 397
shoo@@ 397
scholarships 396
tionally 396
nings 396
otherwise 396
airs 396
vi 396
assassin@@ 396
entering 396
ints 396
offering 396
etary 396
letting 396
you@@ 396
ported 396
stim@@ 395
maps 395
onomy 395
joint 395
nursing 395
abused 395
maintenance 395
posted 395
task 395
swift 394
nas@@ 394
lows 394
seas@@ 394
underrated 394
spi@@ 394
rity 394
rural 394
upgrade 394
establish 394
homes 394
curve 394
gravitational 393
landing 393
audience 393
mat 393
convic@@ 393
myster@@ 393
integration 393
encourage 392
giant 392
infrastructure 392
owned 392
circumstances 392
regi@@ 392
molecular 392
ashamed 392
rising 392
everywhere 391
limits 391
wage 391
hav@@ 391
performing 391
fur@@ 391
ney 391
jon 391
selec@@ 391
ladies 391
pot 391
comparison 390
originate 390
codes 390
challeng@@ 390
hil@@ 390
liter@@ 390
suicidal 390
rick 390
bran@@ 390
managers 390
lgbt 390
diabetes 390
oration 390
pants 390
fav@@ 390
pilani 390
reset 389
confir@@ 389
dishes 389
radius 389
deser@@ 389
titles 389
bie 389
butt 389
bengali 389
ino@@ 389
ibps 389
toward 389
transi@@ 388
sequence 388
breakup 388
merit 388
con 388
fought 388
conducted 388
ben 388
embedded 388
light@@ 387
redmi 387
telec@@ 387
bands 387
corn 387
accoun@@ 387
tattoo 387
robotics 387
secrets 387
lyrics 387
translate 387
coin@@ 387
thermal 387
pilots 387
roads 386
pension 386
kota 386
gates 386
cations 386
flowers 386
hired 386
disorders 386
gran@@ 385
his@@ 385
don 385
inju@@ 385
interact 385
vellore 385
scheme 385
pressing 385
heroes 385
drama 385
inr 385
bullying 385
chron@@ 384
moments 384
matters 384
killer 384
allowing 384
bihar 384
bags 384
compo@@ 384
admissions 384
ayed 383
cus@@ 383
brah@@ 383
ae@@ 383
reactions 383
pers@@ 383
certified 382
pack@@ 382
refer@@ 382
roy@@ 382
jin@@ 382
qualification 382
appears 382
finished 382
thr@@ 382
divi@@ 382
judaism 382
arti@@ 382
harassment 382
label@@ 382
boot 382
tag 382
gol@@ 381
centri@@ 381
moves 381
discharge 381
tension 381
robot 381
faculty 381
tit@@ 381
tren@@ 381
verbal 380
wrest@@ 380
care@@ 380
discuss 380
difficulty 380
pole 380
contains 380
extension 380
iner@@ 380
igh@@ 380
setup 380
tar 380
bag@@ 380
relatively 380
transportation 380
uri@@ 380
constitu@@ 379
snake 379
investor 379
invade 379
migrate 379
increases 379
suppose 379
consumption 379
liver 379
distin@@ 379
verted 378
animated 378
robots 378
processes 378
dit 378
substance 378
cops 378
vegas 378
magazine 378
psych@@ 378
jordan 378
honey 377
nal 377
compete 377
semi@@ 377
communities 377
van 377
loy@@ 377
info 377
recruit@@ 377
norway 377
farm 377
basically 377
athe@@ 377
commonly 377
decline 377
atures 376
teach@@ 376
ener@@ 376
pod@@ 376
simul@@ 376
assets 376
ejac@@ 375
hus@@ 375
kle 375
legitimate 375
spirit 375
genius 375
justified 375
vely 375
printing 375
payments 375
accepting 375
rio@@ 375
failing 374
attrac@@ 374
smile 374
uniform 374
vap@@ 374
patrio@@ 374
equations 374
insecure 374
freshers 374
collect 374
progressive 374
restri@@ 374
mah@@ 374
efficiency 374
lesbian 374
recording 374
day@@ 374
sugge@@ 374
mainstream 373
attacked 373
sweet 373
approved 373
shops 373
yu@@ 373
stand@@ 373
orbit 373
uc 373
lake 373
trans 373
eligibility 373
jew 373
ebay 372
valent 372
requires 372
elizabeth 372
journ@@ 372
quantity 372
anth@@ 372
supported 372
ious 372
alo@@ 372
dell 372
labor 372
jedi 372
goku 372
tinder 371
boxing 371
attem@@ 371
craft 371
polish 371
preci@@ 371
capitali@@ 371
tip 371
gene@@ 371
satisfied 371
sony 371
introduce 371
installed 371
compar@@ 371
ahead 371
suff@@ 371
realise 371
jerusalem 371
martin 371
lifetime 370
mom@@ 370
structural 370
appearing 370
cians 370
trained 370
embarrassing 370
performed 370
gent 370
removing 370
los@@ 370
loop 370
tian 370
adopted 369
stalin 369
abra@@ 369
aim 369
stab@@ 369
distribu@@ 369
implications 369
thor@@ 369
compla@@ 369
jewel@@ 369
requirement 369
itable 369
affair 369
boston 369
clearing 369
bott@@ 369
reasoning 369
css 368
marrying 368
clock 368
tants 368
govern@@ 368
stan 368
ues 368
elle 368
bones 368
versus 368
coal 368
attend@@ 367
sanc@@ 367
thanks 367
assembly 367
thor 367
kis@@ 367
evolved 367
ek 367
ears 367
mony 367
ethics 367
destination 367
vacuum 367
him@@ 367
numer@@ 367
fif@@ 367
fate 367
inflation 366
hacked 366
kid@@ 366
cis@@ 366
activate 366
attending 366
calculated 366
penalty 366
donate 366
mask 366
shell 366
advertise@@ 366
fier 366
locked 365
masturbating 365
dar 365
ho 365
attorney 365
exclu@@ 365
invasion 365
drinks 365
sanskrit 364
inches 364
nails 364
minds 364
recovery 364
council 364
soap 364
athan 364
strict 364
ometry 363
nift 363
hang@@ 363
tube 363
appreci@@ 363
induc@@ 363
fingers 363
stones 363
depend 363
deliver 363
advisable 363
bitcoins 363
regime 362
jum@@ 362
trop@@ 362
bonds 362
damaged 362
surgeon 362
satellite 362
hons 362
tone 362
tary 362
ysi@@ 362
invention 362
gon 362
arity 362
recognition 362
thir@@ 362
slowly 361
psychologist 361
detail 361
introduced 361
target@@ 361
sing@@ 361
with@@ 361
bio 361
institution 361
bumps 361
reports 361
rier 361
vegetables 361
guaran@@ 361
provin@@ 360
gary 360
onia 360
lear@@ 360
ech 360
boat 360
nearly 360
md 360
district 360
revenge 360
cycl@@ 360
differentiate 360
see@@ 360
composition 360
hall 360
ito 360
ox@@ 360
barack 359
breath 359
vo 359
siblings 359
influential 359
af 359
tested 359
chose 359
oven 359
coolest 359
host@@ 359
unhealthy 359
capitalism 359
hack@@ 359
sim@@ 358
gel 358
ateful 358
comedk 358
lesson 358
short@@ 358
fat@@ 358
dreaming 358
stro@@ 358
lands 358
sperm 358
tories 358
aka 358
curious 358
puppy 357
funded 357
incar@@ 357
bleeding 357
breakfast 357
indicate 357
flipkart 357
ops 357
thick 357
bies 357
safely 357
thanos 357
checking 357
instrument 357
neur@@ 356
ts@@ 356
bhar@@ 356
eta 356
paytm 356
kvpy 356
vc 356
mca 356
pays 356
publishing 356
plays 356
nur@@ 356
pending 356
pretend 355
hydr@@ 355
cube 355
molecules 355
scar@@ 355
sentences 355
comfort 355
addi@@ 355
iranian 355
ica 355
drawn 355
quali@@ 355
cameras 355
invol@@ 355
missi@@ 355
eliminate 355
esthe@@ 354
exam@@ 354
ference 354
entrepreneurs 354
arrest 354
spy 354
missile 354
rently 354
schoo@@ 354
perception 354
ssing 354
particularly 354
rang@@ 353
welfare 353
tting 353
rss 353
ahmedabad 353
cum 353
airplane 353
xy 353
wings 353
titude 353
columbia 353
correlation 353
knife 352
spin@@ 352
hill 352
alle@@ 352
intermediate 352
locate 352
router 352
mb 352
motorcycle 352
fted 351
jokes 351
minded 351
ffs 351
tower 351
concentrate 351
dimensions 351
georgia 351
imperi@@ 351
nag@@ 351
theoretical 351
ato@@ 351
calm 351
matrix 351
ea@@ 350
booking 350
unemployment 350
clic@@ 350
lucknow 350
canon 350
plates 350
mini 350
ashing 350
qualifications 350
tactics 350
surname 350
tte 349
mean@@ 349
chapters 349
mood 349
contributions 349
runs 349
lakh 349
aptitude 349
hot@@ 349
tioned 349
survey 349
claimed 349
practi@@ 349
eness 349
powered 348
cigarettes 348
ades 348
visited 348
rose 348
pit 348
seeds 348
eland 348
butter 348
gas@@ 348
dani@@ 348
empathy 348
anna 348
bush 347
popularity 347
pleasure 347
homosexual 347
itor 347
das 347
styles 347
metals 347
magn@@ 347
nitrogen 347
gies 347
ization 347
acquire 347
acade@@ 347
colli@@ 347
generator 347
sians 346
competi@@ 346
dys@@ 346
beard 346
seven 346
pitch 346
warri@@ 346
symbo@@ 346
premium 346
privilege 346
indore 346
iiser 346
syrian 346
elli@@ 346
pee 345
pir@@ 345
inferior 345
tiny 345
brow@@ 345
ink 345
poems 345
satur@@ 345
seeking 345
withdraw 345
puts 345
lion 345
essed 345
isol@@ 344
watches 344
fellow 344
traditions 344
hd 344
thermo@@ 344
dark@@ 344
massage 344
ophi@@ 344
sof@@ 344
attribu@@ 344
accenture 344
swal@@ 343
avoi@@ 343
kic@@ 343
oes 343
cb@@ 343
llb 343
devi@@ 343
cock@@ 343
gene 343
gated 343
kill@@ 343
sociology 343
lover 343
neutr@@ 343
suppor@@ 343
reco@@ 343
islam@@ 343
equi@@ 343
vr 343
holidays 343
chapter 343
cpu 343
programmers 342
contr@@ 342
mercury 342
sales@@ 342
lanka 342
transaction 342
holders 342
anded 342
suits 342
pill 342
spectrum 342
bot 342
onist 342
optimi@@ 342
lips 342
strangers 342
decades 342
hat 342
occur@@ 341
eter@@ 341
ender 341
tec@@ 341
compatible 341
prob@@ 341
survival 341
improving 341
part@@ 341
distinguishes 341
pharmacy 341
intern@@ 341
bills 341
notification 341
mia 341
gau@@ 341
breaks 340
patterns 340
mainly 340
affecting 340
classi@@ 340
cers 340
alum@@ 340
conventional 340
persian 340
organisms 340
journalism 340
matches 339
fever 339
cos@@ 339
buildings 339
develop@@ 339
acking 339
arrogant 339
lottery 339
vas@@ 339
ora 339
measured 339
conclu@@ 338
sus 338
stereo@@ 338
opo@@ 338
bak@@ 338
organisation 338
safest 338
elite 338
luxury 338
contribution 338
chem@@ 338
sauce 338
inity 338
trains 338
measu@@ 338
thro@@ 338
walker 338
flower 338
buc@@ 338
get@@ 338
employed 337
hospitals 337
monit@@ 337
taller 337
perfectly 337
judg@@ 337
tourists 337
fies 337
gui@@ 337
ku 336
amp 336
regard 336
poin@@ 336
bby 336
fundam@@ 336
click 336
supre@@ 336
asis 336
portuguese 336
mt 335
ites 335
access@@ 335
protest 335
tant 335
lunch 335
abad 335
ared 335
removal 335
cere@@ 335
happ@@ 335
spin 335
vitamin 335
favor 335
conversion 335
shap@@ 335
bully 335
palestinian 335
mouse 335
dot 335
criticism 335
seg@@ 335
vor 334
analo@@ 334
continent 334
snow@@ 334
ethereum 334
belon@@ 334
bt@@ 334
hur@@ 334
prelims 334
tering 334
driven 334
opened 334
sors 334
refund 334
fall@@ 334
celebr@@ 334
rey 334
knee 334
headphones 334
https 334
cv 333
buddhism 333
dial@@ 333
appa@@ 333
auc@@ 333
tious 333
brave 333
cau@@ 333
prosp@@ 333
garden 333
anthro@@ 333
swit@@ 333
served 333
belt 333
county 332
plu@@ 332
cardi@@ 332
coast 332
pad 332
zz 332
dul@@ 332
hurts 332
tage 332
tori@@ 332
glu@@ 332
designs 332
cuts 332
amity 332
bright 332
contemporary 332
definitely 332
singapore@@ 331
fts 331
obe@@ 331
enemies 331
dered 331
mythology 331
andre@@ 331
gall@@ 331
bisexual 331
screen@@ 331
interven@@ 331
inary 331
accommo@@ 331
engage 331
insu@@ 330
mph 330
lawyers 330
residential 330
newly 330
discus@@ 330
ipcc 330
deeply 330
dan 330
sins 330
fai@@ 330
sexist 330
statements 330
millenni@@ 330
passi@@ 330
mothers 330
aus@@ 329
compe@@ 329
femin@@ 329
lum@@ 329
abs 329
youtu@@ 329
king@@ 329
bra 329
virginity 329
danger 329
recorded 329
exten@@ 329
sey 329
raising 329
thier 329
alt 329
alex@@ 328
agar 328
surve@@ 328
workplace 328
supports 328
farmers 328
anim@@ 328
mach@@ 328
compounds 328
morally 328
rant 328
disappear 328
radio@@ 328
darth 328
otic 328
legis@@ 327
vis 327
arly 327
anne 327
trick 327
artic@@ 327
regional 327
islands 327
draft 327
ignoring 327
ris@@ 327
volcan@@ 327
reduced 327
pression 327
alpha 327
bars 327
charger 327
sized 327
asleep 327
shiva 327
ibm 327
pati@@ 327
sexy 326
ruin 326
quick@@ 326
nutri@@ 326
awareness 326
gho@@ 326
lau@@ 326
scenes 326
achievements 326
intentionally 326
conference 326
reported 325
trek 325
choices 325
mortgage 325
musi@@ 325
yel@@ 325
bachelors 325
hob@@ 325
enz@@ 325
complicated 325
asper@@ 325
dur@@ 325
eaten 325
ec 325
troll 325
ignou 325
cannabis 325
quiet 325
cian 324
presidents 324
dangers 324
gon@@ 324
awesome 324
wisdom 324
cfa 324
incest 324
liest 324
backup 324
bubble 323
tracking 323
justin 323
meet@@ 323
niger@@ 323
abor@@ 323
wav@@ 323
reduc@@ 323
jam 323
ado@@ 323
agenda 323
pag@@ 323
august 323
bengaluru 323
alexander 323
zoo@@ 323
nationalism 322
restore 322
prize 322
injury 322
elev@@ 322
distributed 322
jeans 322
devil 322
moo@@ 322
seed 322
dama@@ 322
soda 322
ingredients 322
login 322
expansion 322
unusual 322
beam 322
gifts 322
sustainable 322
orph@@ 322
legen@@ 322
ea 322
presentation 321
sty@@ 321
polar 321
aspect 321
applicable 321
batteries 321
transformer 321
apped 321
correctly 321
cleared 321
pride 321
ix 320
accused 320
calcium 320
fl 320
cambridge 320
packages 320
accomplish@@ 320
sulph@@ 320
worth@@ 320
bother 320
saturn 320
stly 319
sym@@ 319
lip 319
yard 319
evalu@@ 319
mess 319
sqrt 319
athic 319
microwave 319
tre 319
patent 319
confron@@ 319
ado 319
foc@@ 319
flir@@ 319
restric@@ 318
romance 318
intervie@@ 318
employers 318
myth 318
nad@@ 318
thre@@ 318
dub@@ 318
intercourse 318
transp@@ 318
brahmins 318
ci 318
technological 318
luck 318
roots 318
instant 318
bugs 317
etic 317
neither 317
extinct 317
whereas 317
what@@ 317
pix@@ 317
expand 317
lement 317
lifting 317
borderline 317
gta 317
strated 317
prescri@@ 317
appreciate 317
farming 317
cent@@ 317
where 317
ancestors 317
nutrition 317
temporary 317
marines 316
med@@ 316
philosoph@@ 316
bhu@@ 316
honda 316
enterprise 316
scotland 316
assign@@ 316
gos 316
sta 316
joseph 316
presen@@ 316
scan@@ 316
purchased 316
zom@@ 316
intern 316
wan 316
legi@@ 316
regre@@ 316
relatives 316
strangest 315
tta 315
motor@@ 315
premi@@ 315
highlights 315
har 315
appointment 315
tasks 315
desert 315
judi@@ 315
gins 314
pting 314
bhopal 314
forum 314
lier 314
ade@@ 314
recognized 313
umes 313
bringing 313
evolutionary 313
equally 313
neighb@@ 313
escor@@ 313
construct 313
kins 313
astrology 313
legit 312
phi@@ 312
facility 312
supplements 312
bankru@@ 312
rated 312
wasting 312
cruel 312
eous 312
appointed 312
color@@ 312
ude 312
exposed 312
preference 312
arch 312
lical 312
interpret 312
portal 312
involve 312
hit@@ 311
bali 311
peoples 311
algebra 311
closest 311
lor@@ 311
clou@@ 311
wolf 311
organized 311
advise 311
quoran 311
radical 311
bombay 311
esti@@ 311
controller 311
maxim@@ 311
sensi@@ 310
fab@@ 310
aggre@@ 310
designers 310
frozen 310
socialism 310
walls 310
stopping 310
hm 310
onom@@ 310
societies 310
jay 310
sap@@ 310
ng 310
terminal 310
atro@@ 310
nl@@ 310
dtu 310
port@@ 310
grams 309
cis 309
uck 309
slightly 309
orthodox 309
leather 309
realized 309
reporting 309
priv@@ 309
bm@@ 309
acet@@ 309
jective 309
proposal 309
kit 309
eag@@ 309
believ@@ 308
reserve 308
haz@@ 308
jones 308
pronounce 308
bec@@ 308
inated 308
feedback 308
weigh 308
ette 308
rers 308
innovative 308
xbox 308
cauc@@ 308
january 308
incredi@@ 308
cop 308
memori@@ 307
ide 307
arranged 307
aadhar 307
henry 307
approval 307
insist 307
kin 307
mike 307
discipline 307
creativity 307
bean 307
atu@@ 307
interaction 307
substitute 307
rolling 307
node 307
righ@@ 307
rejection 307
ncr 307
barcelona 307
regards 307
tough@@ 307
honours 307
villa@@ 307
luke 307
consist@@ 306
bound 306
swedish 306
cruise 306
lative 306
november 306
stroke 306
controlling 306
parking 306
vpn 306
moto 305
armen@@ 305
adobe 305
kets 305
wns 305
aer@@ 305
retire 305
jupiter 305
bour@@ 305
appeal 305
stealing 305
airtel 305
kannada 305
gaining 305
tanks 305
kumar 305
producing 304
feeding 304
resolution 304
indonesians 304
september 304
body@@ 304
hunter 304
bds 304
ading 304
mount 304
hunting 304
anta 304
anal 304
mandarin 304
heating 304
israelis 304
label 304
friction 304
burg 303
rays 303
economically 303
insult 303
angles 303
sely 303
invent 303
constitutional 303
instrum@@ 303
ira 303
phy 303
tai@@ 303
esteem 303
sharp 303
odds 302
labour 302
guar@@ 302
votes 302
mahabhar@@ 302
sert 302
attempts 302
doors 302
claiming 302
lately 302
encies 302
ott@@ 301
dali@@ 301
genders 301
bled 301
micro 301
vocabulary 301
defining 301
ml@@ 301
connections 301
cancelled 301
nail 301
enhance 301
sikhs 301
antly 301
pin 301
sanders 301
spar@@ 301
planned 301
stru@@ 301
portugal 301
practicing 300
printer 300
intoler@@ 300
gold@@ 300
hungry 300
orders 300
habitat 300
lean 300
expec@@ 300
shiel@@ 300
regions 300
achment 300
shan@@ 300
drone 300
outer 300
vic 300
eleph@@ 300
atm 300
distinguish 299
therap@@ 299
genre 299
lore 299
casual 299
din 299
breathing 299
cil 299
promotion 299
nato 299
reserv@@ 299
continuous 299
organs 299
guilt 299
behavi@@ 299
cnn 299
softwares 299
responsibilities 299
quad@@ 299
ps@@ 299
del 299
jr 299
idity 299
pie 299
introduction 298
wr@@ 298
gad@@ 298
evaluate 298
casting 298
finger@@ 298
baking 298
declare 298
encounter 298
closing 298
ocd 298
village 298
terror 297
wom@@ 297
diamond 297
punjabi 297
chers 297
cogni@@ 297
ural 297
expectations 297
blow 297
anonymously 297
eclipse 297
turing 297
way@@ 297
solu@@ 297
believing 297
bulk 297
thousand 297
ridiculous 297
pleas@@ 297
ordered 297
phili@@ 297
sword 297
walmart 297
opho@@ 297
journal 297
neighbor 297
orities 297
furniture 297
diagno@@ 297
instruments 297
trou@@ 296
shoulder 296
bic@@ 296
twe@@ 296
struggling 296
depth 296
argue 296
husbands 296
ich 296
chrom@@ 296
sach@@ 296
fed 296
berlin 296
advertise 296
arians 296
sian 296
ampli@@ 295
award 295
hacker 295
informa@@ 295
fairly 295
oin 295
aired 295
nurse 295
mathematici@@ 294
marriages 294
procedures 294
stations 294
resul@@ 294
immigrate 294
caring 294
nra 294
purchasing 294
emo@@ 294
eable 294
graduated 294
kam@@ 294
bedroom 294
rev@@ 294
prosecu@@ 294
newton 294
boot@@ 294
unity 294
comedy 294
tel 294
discre@@ 294
sr 294
als@@ 293
decor@@ 293
bathroom 293
wwe 293
sydney 293
mnc 293
colum@@ 293
sies 293
synthesis 293
pub@@ 293
gemini 293
fabric 293
hu 293
inde@@ 293
excellent 293
maker 293
bluetooth 293
classroom 293
oxford 293
ecu@@ 293
boarding 293
texting 293
manner 292
quo@@ 292
territory 292
lap@@ 292
stressed 292
descend@@ 292
lor 292
ghter 292
conversations 292
condem@@ 292
sensor 292
inver@@ 292
schedul@@ 292
house@@ 292
tization 292
forex 292
tioner 292
hurricane 291
band@@ 291
trol@@ 291
parag@@ 291
dian 291
excuse 291
unlimited 291
room@@ 291
logan 291
finds 291
anium 291
organ 291
tablets 291
majors 290
shake 290
mindset 290
conflic@@ 290
ico 290
bb@@ 290
perf@@ 290
figures 290
mou@@ 290
memorable 290
contro@@ 290
stark 290
streets 290
decade 290
diplom@@ 290
reducing 290
tour@@ 290
yahoo 290
westerners 289
neutrality 289
acceptance 289
vocal 289
streaming 289
mass@@ 289
swollen 289
borders 289
wild@@ 289
paste 289
graduating 289
cartoon 289
rajasthan 289
destroying 289
architect 289
disk 288
punish 288
downloading 288
chris 288
separated 288
ere 288
stup@@ 288
haw@@ 288
lenovo 288
liking 288
eline 288
persu@@ 288
infl@@ 288
freelancer 288
thrown 288
techn@@ 288
ority 288
iranians 288
angel 288
bowl 287
grandmother 287
enter@@ 287
ain 287
nou@@ 287
searching 287
rel 287
spher@@ 287
shadow 287
isms 287
tained 287
conci@@ 287
contradic@@ 287
innovation 287
trolls 287
dings 287
grant 287
gly@@ 287
lam 287
gained 287
camps 287
perks 287
beta 287
fis@@ 286
duration 286
occa@@ 286
skip 286
impression 286
oman 286
verify 286
freshman 286
bat 286
openly 286
limitations 286
expan@@ 286
vere@@ 286
dimen@@ 286
pronoun@@ 286
randomly 286
schizophrenia 286
oppose 286
anthem 286
relativity 286
venus 286
banglades@@ 286
sms 286
depicted 286
remaining 285
typing 285
labs 285
genetically 285
ultra 285
diagnosis 285
ord@@ 285
supervis@@ 285
ague 285
yesterday 285
atheism 285
providers 285
silly 285
chec@@ 285
taylor 285
dedic@@ 285
educ@@ 285
generations 285
orship 284
viable 284
deplo@@ 284
asses 284
sali@@ 284
ented 284
manipu@@ 284
ring@@ 284
gical 284
santa 284
willi@@ 284
unlike 284
belgi@@ 284
emperor 284
shock 284
gations 284
signals 284
safer 284
mexicans 284
urge 284
prac@@ 284
confi@@ 284
petroleum 284
andhra 284
tural 284
shirts 283
necessarily 283
market@@ 283
crew 283
friend@@ 283
panel 283
fallen 283
ota 283
argentina 283
oos 283
coconut 283
profits 283
youn@@ 283
mechan@@ 283
sai@@ 283
nt@@ 283
nin@@ 283
strategic 283
generated 282
sponsor 282
trusted 282
electromagnetic 282
hike 282
cked 282
entirely 282
sec 282
nest 282
licate 282
gmat 282
interface 282
inspec@@ 282
authors 282
und@@ 282
discovery 282
pacific 282
carried 282
thai 282
ttle 282
hiding 282
wholes@@ 282
och@@ 282
phen@@ 282
dressing 281
gan@@ 281
perio@@ 281
regardless 281
dder 281
deals 281
disaster 281
jersey 281
movements 281
integral 281
lim@@ 281
ethnicity 281
chemicals 281
lenses 281
impro@@ 281
immor@@ 281
nan@@ 281
moderation 281
passenger 281
gop 281
ecommerce 281
how@@ 281
fanta@@ 281
atives 281
bath 281
toys 281
rever@@ 281
sel 280
wanna 280
multip@@ 280
circu@@ 280
ubuntu 280
massac@@ 280
puerto 280
mn@@ 280
custom@@ 280
inee 280
kashmiri 280
ater@@ 280
enforcement 280
enty 280
ope 280
civilians 280
pulled 280
plug@@ 280
unfair 279
subsi@@ 279
agues 279
univer@@ 279
fron@@ 279
box@@ 279
washed 279
skilled 279
manchester 279
repeat 279
reached 279
ilers 279
misconce@@ 279
halloween 279
accid@@ 279
agricultural 279
configu@@ 279
moroc@@ 279
trauma 279
aters 279
disagree 279
bass 278
iisc 278
ree 278
kindle 278
ignored 278
aths 278
neo 278
atoes 278
cancel@@ 278
len 278
thy 278
simpl@@ 278
thus 278
hop 278
detailed 278
ped@@ 278
proposed 278
lane 278
sion@@ 278
homopho@@ 277
discussion 277
sheets 277
differential 277
hits 277
bhag@@ 277
mixture 277
dentist 277
usual 277
rud@@ 277
fathers 277
autom@@ 277
hydra@@ 277
ckets 277
diab@@ 277
throwing 277
engagement 277
disadvantage 277
pseud@@ 277
hawaii 277
invaded 277
span 277
extro@@ 276
publicly 276
rement 276
collabor@@ 276
bed@@ 276
angel@@ 276
convin@@ 276
forgot 276
socialist 276
just 276
regulations 276
ita 276
ras 276
patna 276
iser 276
sociopaths 276
nai@@ 276
loading 276
pal 276
craziest 276
understood 276
mainland 276
clone 276
weets 276
asset 276
academics 276
maj@@ 276
updates 276
superhero 275
cit@@ 275
hl 275
avai@@ 275
merge 275
rub@@ 275
coordin@@ 275
impress 275
extended 275
ign 275
blu@@ 275
tionary 275
estimate 275
sci@@ 275
tight 275
daughters 275
poison 275
malaysian 275
customs 275
rarely 275
respectful 274
chin@@ 274
pimples 274
betra@@ 274
cum@@ 274
authentic 274
assess@@ 274
pas@@ 274
functioning 274
sibling 274
default 274
oce@@ 274
warfare 274
tery 274
castrated 274
disability 274
eg 274
filipino 274
tici@@ 274
obviously 274
iot 274
denmark 274
poop 274
migration 274
musician 274
grounds 274
baba 274
ith 273
iz@@ 273
frequent 273
sper@@ 273
temper@@ 273
thum@@ 273
phr@@ 273
veget@@ 273
blocks 273
parano@@ 273
stron@@ 273
colla@@ 273
manufacturers 273
ownership 273
cylinder 273
notifications 273
adm@@ 273
ulating 273
plain 273
grocer@@ 272
procra@@ 272
pupp@@ 272
colo@@ 272
australians 272
gang 272
alban@@ 272
talked 272
clin@@ 272
het@@ 272
predat@@ 272
ussr 272
meaningful 272
psy@@ 272
fair@@ 272
fting 272
combined 272
pray 272
rese@@ 272
cellu@@ 272
bullied 272
poo 272
stein 272
magnet 271
ologist 271
creepy 271
posed 271
tha 271
swim 271
seattle 271
stands 271
scan 271
gla@@ 271
jain 271
process@@ 271
bage 271
versi@@ 271
incre@@ 271
iims 271
genes 271
senate 271
anxious 271
pret@@ 271
ose 271
happi@@ 271
shame 271
witnessed 270
breath@@ 270
lemon 270
respective 270
concern 270
hybrid 270
sas@@ 270
stra 270
kiit 270
carbon@@ 270
shopify 270
punished 270
kles 270
defeated 270
there@@ 270
doubt 270
lateral 270
obtained 269
primar@@ 269
broker 269
jected 269
welcome 269
vary 269
exit 269
esp@@ 269
has@@ 269
roof 269
partial 269
respected 269
journalist 269
gin 269
locations 269
diagram 269
previously 269
smartphones 269
induction 269
cious 269
onate 269
laugh@@ 269
bunch 269
exposure 269
vul@@ 269
todd@@ 269
butter@@ 269
tempor@@ 268
freelan@@ 268
instantly 268
motiv@@ 268
iss@@ 268
aids 268
centers 268
cares 268
stant 268
timate 268
italians 268
surrounding 268
highschool 268
god@@ 268
hundreds 268
launched 268
gays 268
golf 268
sexuality 268
trash 268
association 268
competent 268
pf 268
conveni@@ 268
composed 268
makers 268
ony@@ 268
accountant 268
melbourne 267
entrepreneurship 267
withdra@@ 267
oured 267
dru@@ 267
bikes 267
sket@@ 267
overwhel@@ 267
michigan 267
aur@@ 267
tutorials 267
recogn@@ 267
secretary 267
ces@@ 267
pork 267
ul 267
flu 267
turb@@ 267
osis 267
propose 266
aviation 266
can 266
fluent 266
disgusting 266
freeze 266
dent 266
believes 266
stages 266
spreading 266
slo@@ 266
sag@@ 266
bath@@ 266
priority 266
resolve 266
simulation 266
column 266
uss 266
juli@@ 265
tack@@ 265
villain 265
cook@@ 265
subscription 265
kap@@ 265
mich@@ 265
rivers 265
snap 265
disable 265
cad 265
dv@@ 265
enable 265
cured 265
tatt@@ 265
portion 265
genetics 265
recommendations 265
seller 265
leftists 265
legacy 265
qatar 265
iny 265
karma 265
db 264
fighters 264
joe 264
wins 264
susta@@ 264
ptsd 264
hr@@ 264
retrieve 264
comprom@@ 264
nutritional 264
bel 264
fresh@@ 264
beat@@ 264
pg@@ 264
abstr@@ 264
navi@@ 264
catholics 264
vege@@ 264
ronaldo 264
gal 264
disco@@ 264
mers 264
healing 264
embr@@ 264
counseling 264
nerve 264
phenomen@@ 263
destruction 263
guid@@ 263
ifs 263
threatening 263
requi@@ 263
kenya 263
tible 263
variables 263
spark 263
genous 263
builder 263
principal 263
gand@@ 263
wb@@ 263
notic@@ 263
liar 263
recruit 263
kir@@ 263
sexuals 263
doms 263
week@@ 263
pis@@ 263
interpre@@ 263
curriculum 263
gps 263
sic 262
parliament 262
railways 262
princess 262
conductor 262
evening 262
murdered 262
pipe 262
transplant 262
nes@@ 262
prohi@@ 262
notable 262
orgasm 262
handed 262
itting 262
acle 262
tational 261
experiencing 261
bob 261
potassium 261
pig 261
ruled 261
excessive 261
deliber@@ 261
crystal 261
amy 261
npd 261
tiger 261
firearms 261
widely 261
recep@@ 261
madrid 261
triple 261
aking 261
depic@@ 261
tata 261
rust 261
psychiatrist 261
lightning 261
gil@@ 261
slu@@ 261
backs 261
guru 260
moderate 260
tap@@ 260
choo@@ 260
matu@@ 260
specifications 260
hitting 260
penny 260
hormon@@ 260
vy 260
ento 260
immune 260
photoshop 260
holds 260
entit@@ 260
neighbor@@ 260
ole 260
ms@@ 260
geographical 260
seemingly 260
shaped 260
nagpur 260
circular 260
origin@@ 260
carrying 260
bicycle 260
nity 260
prescription 260
troops 260
satan 260
enna 259
ind@@ 259
berkeley 259
switching 259
nucleus 259
bid 259
upvote 259
servers 259
sj@@ 259
nude 259
minecraft 259
scot@@ 259
issued 259
symbols 259
typ@@ 259
inventions 259
knowled@@ 259
like@@ 259
inate 259
module 259
technically 259
oxid@@ 259
discount 259
bms 259
wl 259
declar@@ 259
frank@@ 259
patho@@ 259
distant 259
mother@@ 259
philosophical 258
milli@@ 258
hau@@ 258
lease 258
kenne@@ 258
harvey 258
titu@@ 258
sk 258
editor 258
adsense 258
bron@@ 258
euro@@ 258
shi 258
cosme@@ 258
syl@@ 258
displa@@ 258
sees 258
amine 258
dancing 258
tissue 258
metric 257
possess 257
inequality 257
vom@@ 257
indirec@@ 257
cult 257
fiitjee 257
lucky 257
aluminum 257
ripple 257
deciding 257
referred 257
common@@ 257
specialist 257
preferably 257
dal 257
promoting 257
uto 257
fool 257
printed 257
venture 257
organis@@ 257
infor@@ 257
evers 257
recur@@ 257
heli@@ 257
embarrass@@ 257
rum@@ 257
recy@@ 257
stol 257
vertical 257
dinosaurs 257
extract 256
opia 256
wheel@@ 256
atis 256
flies 256
coimbatore 256
fo 256
luci@@ 256
psychop@@ 256
residency 256
ush 256
mons 256
bigo@@ 256
nu 256
twi@@ 256
pron@@ 256
connec@@ 256
irrational 256
loads 256
mies 256
wee@@ 255
onaires 255
aa 255
mentor 255
chop@@ 255
perpe@@ 255
johnson 255
momentum 255
resid@@ 255
divorced 255
loyal 255
leged 255
wat 255
push@@ 255
messi 255
shots 255
kup 255
estim@@ 255
diarrhea 255
chloride 255
intellec@@ 255
proceed 255
noo@@ 254
separation 254
involving 254
mamm@@ 254
delivered 254
owns 254
incorrect 254
calcul@@ 254
occupation 254
elder 254
oids 254
pand@@ 254
testosterone 254
demone@@ 254
font 253
cists 253
embassy 253
drives 253
experts 253
ual 253
olds 253
dioxide 253
pocket 253
chan 253
hunt 253
urdu 253
sary 253
touching 253
classification 253
press@@ 253
adul@@ 253
starbucks 253
smel@@ 253
ura@@ 253
ype 253
zations 253
balaji 253
harass@@ 253
bug 253
sorship 253
pyra@@ 253
jimmy 253
refused 253
sent@@ 252
everytime 252
kejriwal 252
meals 252
mond 252
conquer 252
dropping 252
dimension 252
ag 252
residents 252
consistent 252
transactions 252
frank 252
delu@@ 252
amp@@ 252
concert 252
hating 252
davi@@ 252
rai@@ 252
sop@@ 252
capture 252
aster@@ 252
milit@@ 252
yana 252
saas 252
real@@ 251
efforts 251
curse 251
boobs 251
cist 251
fon@@ 251
simpli@@ 251
memor@@ 251
fuc@@ 251
adolf 251
jab@@ 251
vag@@ 251
manip@@ 251
completion 251
tradition 251
reveal 251
ord 251
rc 251
sacrifice 251
earthquake 251
helicop@@ 251
alcoholic 251
scra@@ 251
marathi 251
ido@@ 251
occurs 251
ayurveda 251
pcb 251
morality 251
bleach 251
negatively 251
corn@@ 251
headache 251
oma 251
candy 251
crick@@ 251
eling 251
vader 251
gab@@ 250
matri@@ 250
ima 250
iam 250
nokia 250
treat@@ 250
chase 250
acles 250
extin@@ 250
granted 250
clerk 250
sherlock 250
scary 250
hedge 250
lewis 250
alis 250
grass 250
learnt 250
intake 250
owning 250
horizon@@ 250
feasible 250
malayal@@ 250
biomedical 250
nepal@@ 250
officials 250
heritage 250
acqu@@ 250
specially 249
quantitative 249
reinfor@@ 249
riding 249
bull 249
membership 249
fourth 249
achi 249
sl 249
pedophi@@ 249
criticize 249
public@@ 249
attacking 249
implementation 249
fossi@@ 249
near@@ 249
heavily 249
akin 249
sively 248
plug 248
egyptian 248
oms 248
yn@@ 248
handsome 248
amounts 248
kni@@ 248
difficulties 248
encoura@@ 248
logies 248
cooked 248
richest 248
alliance 248
deaths 248
cam 248
balanced 248
genuinely 248
hcl 248
puri@@ 248
boiling 248
licence 248
atl@@ 248
nor 248
chair 248
phy@@ 248
asi 247
kan 247
lbs 247
neu@@ 247
achi@@ 247
remem@@ 247
dictator 247
capit@@ 247
rele@@ 247
homework 247
ety 247
const@@ 247
tang@@ 247
thers 247
tony 247
insane 247
pressions 247
emotion 247
component 246
operator 246
dles 246
invite 246
eton 246
austria 246
degra@@ 246
gence 246
uncle 246
touched 246
tamils 246
tire 246
resign 246
fucking 246
pgdm 246
intense 246
soup 246
ometric 246
teles@@ 246
storm 246
copy@@ 246
ald 246
timi@@ 246
dynasty 246
chromos@@ 246
merchant 245
hadoop 245
gton 245
airbnb 245
lg 245
empi@@ 245
col 245
fasting 245
covers 245
popu@@ 245
rich@@ 245
kee@@ 245
october 245
calculator 245
sisters 245
mankind 245
genic 245
tted 245
modul@@ 245
hetero@@ 245
shoe 245
resc@@ 245
invest@@ 245
pec 245
barely 245
cotton 245
ontario 244
placing 244
op 244
tum 244
tui@@ 244
snakes 244
installing 244
regarded 244
awards 244
overweight 244
less@@ 244
grace 244
exhi@@ 244
volunteer 244
gonna 244
hebrew 244
reserved 244
civilian 244
unattractive 244
privi@@ 244
peac@@ 244
voldemort 244
colonies 244
zuckerberg 244
infer@@ 244
torture 244
coverage 244
managing 244
peer 244
festival 244
vulner@@ 244
isi 244
scari@@ 243
hypno@@ 243
alphabet 243
leship 243
admini@@ 243
marked 243
spor@@ 243
instance 243
converting 243
digits 243
antibio@@ 243
inet 243
peak 243
duties 243
http 243
porting 243
joy 243
continuously 243
vaccine 243
thful 243
miser@@ 243
hall@@ 243
share@@ 243
expecting 243
desk 243
decides 242
excluding 242
retired 242
audit 242
remain@@ 242
brains 242
signing 242
essing 242
kab@@ 242
missions 242
inspi@@ 242
slr 242
combine 242
signature 242
til@@ 242
bernie 242
banana 242
bulb 242
reform 242
complaint 242
rome@@ 242
oriented 242
tality 242
establish@@ 242
injection 242
productivity 241
endo@@ 241
faction 241
miami 241
lock@@ 241
bots 241
oles 241
cage 241
metal@@ 241
prone 241
uttar 241
unlock 241
metabo@@ 241
engers 241
mentation 241
automated 241
psychiat@@ 241
punch 241
oppo@@ 240
colonial 240
pt@@ 240
kne@@ 240
tokyo 240
camp@@ 240
carto@@ 240
correspon@@ 240
tamil@@ 240
blon@@ 240
threat@@ 240
akh@@ 240
wn@@ 240
saint 240
lize 240
southeast 240
ots 240
blade 240
toral 240
millionaire 240
kinetic 240
ao 240
origins 240
matlab 240
horses 240
dust 240
tuals 240
aca 239
deaf 239
missiles 239
tification 239
biting 239
statistical 239
recommendation 239
assam 239
mind@@ 239
spray 239
therefore 239
theorem 239
theoretically 239
jan@@ 239
currencies 239
kali 239
ech@@ 239
pod 239
guest 239
efficiently 239
hobby 239
prejudi@@ 239
dictat@@ 238
alisation 238
hypocritical 238
foren@@ 238
toy 238
wbjee 238
ski 238
renewable 238
anci@@ 238
koh@@ 238
sake 238
belli@@ 238
hanging 238
theatre 238
ctc 238
ckey 238
rohin@@ 238
hulk 238
ula 238
gg 238
amongst 238
significantly 238
yiel@@ 238
rubber 238
architec@@ 238
impacts 238
trait 238
refuses 238
bians 238
hello 237
hra@@ 237
derer 237
consider@@ 237
braces 237
underwear 237
gases 237
tiles 237
excited 237
venezuela 237
shorter 237
prefer@@ 237
offici@@ 237
athi@@ 237
mild 237
sect 237
aspirant 237
idiot 237
stretch 237
trage@@ 237
filed 237
kanpur 237
wai@@ 237
displac@@ 237
sers 237
flats 237
grew 237
timately 237
zer@@ 236
insects 236
threatened 236
chip 236
scoo@@ 236
cigarette 236
disgu@@ 236
brush 236
kills 236
gli@@ 236
beans 236
brazilian 236
treas@@ 236
diges@@ 236
ration@@ 236
errors 236
wel 236
publish@@ 236
slau@@ 236
intro@@ 236
stare 236
shakespeare 235
shav@@ 235
dictionary 235
guess 235
autonomous 235
porno@@ 235
itchy 235
rena@@ 235
trudeau 235
nehru 235
lg@@ 235
buddhist 235
illegally 235
cr 235
prev@@ 235
expl@@ 235
sean 235
stereotypes 235
prestigious 235
sne@@ 235
transferred 235
remedy 235
athletes 235
gons 235
immoral 235
sition 235
simil@@ 235
iro 235
possi@@ 235
desp@@ 235
wax 235
elderly 235
inhe@@ 235
vegans 235
tutorial 235
christopher 235
chand@@ 235
accomplish 234
campai@@ 234
dream@@ 234
checks 234
fits 234
container 234
render 234
transform 234
unemployed 234
trust@@ 234
finland 234
grammatically 234
sharma 234
muse@@ 234
informed 234
explore 234
strength@@ 234
arizona 234
plac@@ 234
compensation 234
leban@@ 234
aska 234
caine 234
lectures 234
stability 234
scripts 233
nri 233
threats 233
block@@ 233
clinic 233
billionaire 233
ouri@@ 233
superpower 233
skir@@ 233
width 233
shah 233
viral 233
chill 233
flexi@@ 233
adju@@ 233
nikon 233
intended 233
rabies 233
thapar 233
autical 233
slee@@ 233
commerci@@ 233
ship@@ 233
outdoor 233
bee 233
aspiring 233
mh@@ 233
rock@@ 233
trigger 232
houston 232
vl@@ 232
entially 232
nie 232
familiar 232
adapt 232
apologize 232
gie 232
sessions 232
skinned 232
bration 232
victory 232
scam@@ 232
excess 232
vable 232
inher@@ 232
pharmac@@ 232
iders 232
reflect 232
business@@ 231
assemble 231
diameter 231
elimin@@ 231
prominent 231
mann 231
refrigerator 231
wi 231
repeatedly 231
restrictions 231
rear 231
associ@@ 231
yland 231
behavioral 231
consen@@ 231
dden 231
astronauts 231
ecution 231
fertili@@ 231
tomy 231
ohio 231
wondering 231
checked 231
confirm 231
vec@@ 231
apocalyp@@ 231
tiz@@ 231
prepar@@ 231
wishes 230
wron@@ 230
administ@@ 230
comparing 230
arab@@ 230
weights 230
lighter 230
vishnu 230
paintings 230
metri@@ 230
olymp@@ 230
pharmaceutical 230
wich 230
illumin@@ 230
activated 230
visu@@ 230
bull@@ 230
rough 230
dred 230
formu@@ 230
spam 230
remains 230
las@@ 229
invo@@ 229
banning 229
cramps 229
kissing 229
vibr@@ 229
motivational 229
manufacture 229
singers 229
rhy@@ 229
credits 229
calorie 229
honor 229
rama 229
mole@@ 229
hawking 229
inc@@ 229
puberty 229
anatomy 229
forgotten 229
stric@@ 229
reader 229
bcom 229
drops 229
aci@@ 229
personalities 229
grid 229
representation 229
mountains 229
carolina 229
scientifically 229
array 229
pling 229
updated 228
forming 228
bure@@ 228
armor 228
ures 228
colom@@ 228
identical 228
oul 228
desperate 228
anni@@ 228
cooling 228
vish@@ 228
enders 228
cinema 228
truc@@ 228
diplomatic 228
wash@@ 228
ular@@ 228
failures 228
akash 228
astronau@@ 228
twins 228
yan@@ 228
sunday 228
olympics 228
motors 228
interpretation 228
ull 228
oor 228
isation 228
manu@@ 228
evi@@ 228
ud 228
what 228
disturb@@ 228
scott 228
poles 228
sick@@ 228
spotify 228
earned 228
nike 227
suffered 227
remin@@ 227
charity 227
heated 227
elementary 227
lite 227
bombs 227
firing 227
kil@@ 227
pics 227
oppon@@ 227
visions 227
div@@ 227
deloitte 227
path@@ 227
acids 227
historically 227
fing 227
jeff 227
nagar 227
controls 227
sal 227
opposition 227
lick 226
romans 226
smartest 226
itunes 226
endo 226
author@@ 226
panels 226
apping 226
approximately 226
experim@@ 226
feder@@ 226
pushing 226
hetic 226
mascul@@ 226
ocr@@ 226
prisoners 226
potentially 226
dary 226
entity 226
asus 226
honestly 226
theists 226
unhappy 226
phosp@@ 226
dges 226
gross 226
connecting 226
referen@@ 226
alties 226
anch@@ 226
encountered 226
dialo@@ 226
sam 226
det@@ 226
palm 226
rom 226
competitors 226
profiles 226
nano@@ 225
zant 225
experiments 225
ammon@@ 225
lication 225
hypothetically 225
azer@@ 225
ruined 225
bou@@ 225
aly 225
unless 225
show@@ 225
continued 225
nis 225
mus 225
originally 225
dras 225
eth 225
delta 225
tooth@@ 225
wall@@ 225
collapsed 225
andru@@ 225
cups 225
aeron@@ 225
consuming 225
producer 225
grin@@ 225
llc 225
mcdonald 225
shave 225
ardu@@ 225
automo@@ 225
peti@@ 225
pear@@ 225
libraries 225
warts 225
mitting 225
lized 225
critici@@ 225
ultr@@ 225
buddh@@ 225
pussy 225
introverts 224
pope 224
actresses 224
dev 224
alizing 224
scorpi@@ 224
internationally 224
mentality 224
icker 224
molecule 224
tennes@@ 224
confeder@@ 224
passes 224
flip 224
symbio@@ 224
nobel 224
magazines 224
wester@@ 224
adi 224
buil@@ 224
expired 224
fare 224
talented 224
manufacturer 224
immun@@ 224
telangana 224
come@@ 224
kri@@ 224
nes 224
hypothetical 224
elled 224
mile 224
lefti@@ 224
fails 224
cracking 224
crush@@ 224
poorly 224
depress@@ 223
succe@@ 223
corporations 223
scars 223
slept 223
synthetic 223
bhubanes@@ 223
physicist 223
rounds 223
stated 223
reputed 223
conven@@ 223
compreh@@ 223
efl 223
worl@@ 223
time@@ 223
overnight 223
text@@ 223
encryp@@ 223
roy 223
ashed 223
allahabad 223
manipulate 223
engaged 223
vacations 223
medicines 223
jab 223
cpt 223
sound@@ 223
edon@@ 223
io 223
weakness 223
trau@@ 222
textbooks 222
od 222
mir 222
supplement 222
vp 222
smoo@@ 222
tracks 222
marath@@ 222
centi@@ 222
resonance 222
sear@@ 222
medic@@ 221
neigh@@ 221
cel 221
shop@@ 221
cand@@ 221
deposi@@ 221
filipin@@ 221
wis@@ 221
tally 220
scen@@ 220
mits 220
tat@@ 220
exist@@ 220
roid 220
func@@ 220
critic@@ 219
limit@@ 219
sher@@ 219
compan@@ 219
cell@@ 219
tm 218
narcissi@@ 218
diag@@ 217
twit@@ 217
ather 217
ecting 217
girl@@ 217
quanti@@ 217
verage 216
depend@@ 216
jection 216
ever@@ 216
malay@@ 216
surroun@@ 215
deter@@ 215
gem@@ 215
evol@@ 215
dium 214
rr@@ 214
corpor@@ 214
sugges@@ 213
deci@@ 212
cend@@ 212
cise 212
clude 212
ames 211
aspir@@ 211
ands 211
tim 211
bian 210
arrang@@ 210
stances 210
span@@ 210
proph@@ 209
environ@@ 209
ww@@ 209
corru@@ 209
affili@@ 209
destruc@@ 209
alli@@ 208
practic@@ 208
pim@@ 208
enni@@ 208
programm@@ 208
exual 208
includ@@ 208
regu@@ 208
horiz@@ 208
chang@@ 207
ignor@@ 207
kol@@ 207
ae 207
point@@ 207
jes@@ 207
mahar@@ 206
enture 206
immedi@@ 206
meas@@ 206
gaz@@ 205
chester 205
discipl@@ 205
snap@@ 205
counsel@@ 204
max@@ 204
ooth 204
ond 204
differenti@@ 204
emplo@@ 204
essive 204
had@@ 203
streng@@ 203
illing 203
approxim@@ 202
conqu@@ 202
avo@@ 202
tox@@ 202
pharm@@ 202
bilities 202
habit@@ 201
hindu@@ 201
ston 201
newspap@@ 201
aller 200
tify 200
who@@ 200
soun@@ 200
americ@@ 200
duce 200
seem@@ 199
great@@ 199
fic 199
ult 199
ills 198
torial 198
nega@@ 198
fir@@ 198
zen 198
oxy@@ 197
alities 197
crypto@@ 197
clear@@ 197
dio 196
muc@@ 196
vered 196
liqu@@ 196
ols 196
prison@@ 195
lip@@ 195
vide@@ 195
satelli@@ 195
joh@@ 195
brac@@ 195
aero@@ 194
moun@@ 194
depart@@ 194
progra@@ 194
them@@ 193
histor@@ 193
omet@@ 193
simp@@ 193
ven 193
virgin@@ 193
comfor@@ 192
bor 192
apart@@ 191
cele@@ 191
ya@@ 191
jus@@ 191
ort 191
aten 191
adop@@ 190
rics 190
ution 190
desig@@ 189
egyp@@ 189
tified 189
encing 188
pation 188
strugg@@ 188
ques 188
itali@@ 188
authen@@ 188
schol@@ 188
propag@@ 187
nam 187
beng@@ 187
lit 187
substitu@@ 187
incid@@ 187
guit@@ 187
aug@@ 186
schem@@ 185
exercis@@ 185
utionary 184
deep@@ 184
ission 184
unk 184
ury 184
gn 183
roun@@ 183
civi@@ 183
call@@ 183
punish@@ 183
ume 183
where@@ 182
ayurve@@ 182
applic@@ 182
ib@@ 182
xed 182
lux@@ 182
gram@@ 181
jeal@@ 181
zu@@ 181
ectively 181
ukra@@ 180
cally 180
infin@@ 180
minist@@ 180
accor@@ 180
pts 180
floo@@ 180
individu@@ 179
rying 179
fam@@ 179
gest 179
even@@ 178
appropri@@ 178
introduc@@ 178
nn 178
consequ@@ 178
summ@@ 178
assa@@ 178
refu@@ 177
shou@@ 177
accep@@ 177
compen@@ 177
farm@@ 177
bn@@ 177
ign@@ 177
profession@@ 176
commun@@ 176
cisco 176
gir@@ 176
stors 175
escap@@ 175
line@@ 175
custo@@ 175
matically 175
gia 175
compul@@ 175
bble 175
innov@@ 175
volun@@ 174
ership 173
sno@@ 173
stop@@ 173
expi@@ 173
jar@@ 172
concentr@@ 172
materi@@ 172
grou@@ 171
repre@@ 171
chap@@ 171
consci@@ 171
purpo@@ 171
ht@@ 171
propo@@ 170
inven@@ 170
ems 170
catho@@ 170
extre@@ 170
crimin@@ 170
rout@@ 170
pursu@@ 169
shoul@@ 169
jury 169
infra@@ 169
ables 169
signi@@ 169
repu@@ 169
rough@@ 168
vt 168
atmo@@ 168
sep@@ 167
eci@@ 167
epy 167
plying 167
ortho@@ 167
scrat@@ 167
implemen@@ 166
yor@@ 166
curren@@ 166
refuge@@ 166
ares 166
xide 166
diver@@ 165
superi@@ 165
voc@@ 165
toi@@ 165
ength 164
gradu@@ 164
theat@@ 163
ounds 163
techno@@ 163
mill@@ 163
tful 163
tings 163
vement 163
spre@@ 163
cry@@ 163
pc@@ 163
yal 163
afgh@@ 163
herit@@ 163
saur@@ 162
udi 162
diam@@ 162
sca@@ 162
stered 162
naz@@ 162
conn@@ 162
enly 162
gd@@ 161
tables 160
manag@@ 160
nov@@ 160
refriger@@ 160
rupe@@ 160
lik@@ 160
ular 160
rious 160
rones 159
tech@@ 158
ecraft 158
oud 158
robo@@ 158
sever@@ 157
ularity 157
german@@ 157
angu@@ 157
perate 157
alla@@ 157
instein 156
enses 156
aad@@ 156
erous 156
indu@@ 155
birth@@ 155
more 155
pus@@ 154
provi@@ 154
reason@@ 154
dding 154
relev@@ 153
enger 153
ordin@@ 153
ira@@ 153
exer@@ 153
mins 152
stom@@ 152
electri@@ 151
tops 151
renew@@ 151
hou@@ 151
ona 151
geno@@ 150
eful 150
verts 150
bass@@ 149
exter@@ 149
ior 149
cket 149
saf@@ 149
istry 149
hospit@@ 149
tration 149
ried 149
nab@@ 148
libr@@ 148
strate@@ 148
vitam@@ 148
tro 148
shir@@ 148
clos@@ 148
life@@ 147
spir@@ 147
tane@@ 147
bt 147
bon 147
sump@@ 147
rors 147
envi@@ 146
mum@@ 146
favor@@ 146
atar 146
hic@@ 146
oop 146
ishes 146
fications 146
ema@@ 146
xim@@ 146
seri@@ 145
gger 145
tains 145
gni@@ 145
crea@@ 144
stern 144
nuc@@ 144
thou@@ 144
sociop@@ 144
tance 144
mble 144
marri@@ 143
secre@@ 143
tabo@@ 143
aded 143
tice 143
frame@@ 142
surge@@ 142
lished 142
john@@ 141
hybri@@ 141
extrem@@ 141
bour 140
gree@@ 140
geni@@ 140
institu@@ 140
synthe@@ 140
dict@@ 140
lot@@ 139
gujar@@ 139
nucle@@ 139
transpor@@ 139
cg@@ 139
distingu@@ 139
volunte@@ 139
advant@@ 139
lio 139
vey 139
asts 139
nasty 138
lications 138
tent 138
horri@@ 138
christ@@ 138
very 137
purch@@ 137
fashi@@ 136
dynam@@ 136
esome 136
mix@@ 136
lable 136
heavi@@ 136
galax@@ 136
load@@ 136
entally 136
intel@@ 135
swi@@ 135
figu@@ 135
garh 135
activi@@ 134
pow@@ 134
techni@@ 134
anese 134
shak@@ 134
geor@@ 133
icals 133
istan 133
lics 133
destro@@ 133
cler@@ 133
was@@ 132
meaning@@ 132
jav@@ 132
lowed 131
ousness 131
urb@@ 131
ycle 131
kash@@ 131
profes@@ 131
mater@@ 131
retri@@ 131
datab@@ 130
situ@@ 130
gage 130
hammad 130
issu@@ 129
sign@@ 129
franch@@ 129
ema 129
industri@@ 129
festiv@@ 129
rema@@ 129
arg@@ 129
adverti@@ 128
regim@@ 128
kine@@ 128
natives 128
mang@@ 128
inging 128
oles@@ 127
ele@@ 127
chen@@ 127
vel 127
lef@@ 126
tili@@ 126
attle 126
exper@@ 126
cryst@@ 126
tters 125
independ@@ 125
pregn@@ 125
zeal@@ 124
face@@ 124
turk@@ 124
phenom@@ 124
mathema@@ 124
dai@@ 124
compre@@ 124
iri@@ 124
kist@@ 124
gare@@ 124
asse@@ 124
sumption 123
rati@@ 123
enced 123
honest@@ 123
justi@@ 123
smar@@ 123
reti@@ 122
tradi@@ 122
success@@ 122
masturb@@ 122
sq@@ 122
ange 122
fant@@ 121
lities 121
bach@@ 121
integr@@ 120
rhe@@ 120
ddle 119
ought 119
hul@@ 119
pk@@ 119
graphical 119
basi@@ 119
inno@@ 119
supple@@ 119
recogni@@ 118
pd@@ 118
paint@@ 118
cess@@ 118
archit@@ 118
mast@@ 118
ouse 118
dang@@ 118
mini@@ 118
silic@@ 117
domes@@ 117
sans@@ 117
proce@@ 116
iter 116
ander 116
camer@@ 116
holo@@ 115
pd 115
rail@@ 115
aster 114
illed 114
igno@@ 114
jim@@ 113
earthqua@@ 113
ross 113
swim@@ 113
gravit@@ 113
traff@@ 112
opal 112
nik@@ 112
ail@@ 112
vad@@ 112
assum@@ 112
deta@@ 111
philipp@@ 111
brazili@@ 111
terr@@ 111
mart 111
gery 110
itjee 110
candi@@ 110
umin@@ 110
info@@ 110
afri@@ 110
frequ@@ 110
flor@@ 110
hra 109
sau@@ 109
argent@@ 109
eces 109
electromag@@ 109
pressi@@ 109
insan@@ 108
theast 108
stood 108
abled 108
fferen@@ 108
veg@@ 108
psychiatri@@ 108
too@@ 108
sna@@ 107
most 107
rogen 107
esses 107
respec@@ 107
vil@@ 106
explan@@ 106
collap@@ 106
jp 105
embar@@ 105
lla@@ 105
tract 105
skin@@ 104
schizophren@@ 104
sory 104
import@@ 104
bey@@ 104
dir@@ 104
sys 103
shado@@ 103
ould 103
spectr@@ 103
contain@@ 103
weal@@ 103
ament 102
statis@@ 102
ela 102
exclud@@ 102
parli@@ 102
ility 101
asy 101
employ@@ 101
neutra@@ 100
apologi@@ 100
chen 100
enterpri@@ 99
poe@@ 99
hurrican@@ 99
philos@@ 99
amer@@ 99
tten 99
uma 99
ticip@@ 99
lish@@ 99
icide 98
ject 98
ficial 98
arrog@@ 98
accom@@ 98
lak@@ 98
oride 98
electron@@ 98
vements 98
proble@@ 97
arro@@ 97
alling 97
defe@@ 97
gure 97
arding 96
harv@@ 96
distri@@ 96
sustain@@ 96
syri@@ 96
thom@@ 96
essions 96
electr@@ 96
teries 95
hosp@@ 95
cylin@@ 95
touri@@ 95
strang@@ 95
nic 94
earth@@ 94
now@@ 94
org@@ 93
dless 93
itely 93
ridicul@@ 93
stere@@ 93
cool@@ 93
ecom@@ 92
word@@ 92
engine@@ 92
heav@@ 92
orgas@@ 92
porters 91
divor@@ 91
gency 91
harm@@ 91
holi@@ 91
fiel@@ 91
ste 91
feren@@ 90
jects 90
unities 90
encoun@@ 90
nels 89
table@@ 89
compati@@ 89
anis 88
attor@@ 88
orig@@ 88
chic@@ 87
pple 87
hawai@@ 87
zy 87
stud@@ 87
mps 87
anonym@@ 86
alphab@@ 86
grav@@ 86
repor@@ 85
contra@@ 85
ison 85
digi@@ 85
insur@@ 85
austri@@ 85
schi@@ 85
some 84
safe@@ 84
cies 84
expo@@ 84
alcoho@@ 84
fren@@ 84
entrepreneu@@ 84
flow@@ 84
world@@ 83
athers 83
sung 83
formul@@ 83
preli@@ 82
chandi@@ 82
sug@@ 82
ingredi@@ 82
presti@@ 81
quor@@ 80
curri@@ 80
punjab@@ 80
rand@@ 79
atten@@ 79
fili@@ 78
reas@@ 78
immigr@@ 78
thly 78
bucks 78
vious 78
perfec@@ 77
ulties 77
probab@@ 77
amaz@@ 77
cryp@@ 76
cript 76
four@@ 76
artific@@ 76
jap@@ 76
algorith@@ 76
venue 76
equip@@ 75
sexu@@ 75
pointed 75
netic 75
anity 74
of 74
tribu@@ 74
balan@@ 74
intelli@@ 74
other@@ 74
performan@@ 73
percent@@ 73
chocol@@ 73
lywood 73
schiz@@ 73
mort@@ 73
alge@@ 72
too 72
imag@@ 71
myth@@ 71
steph@@ 71
enfor@@ 71
weap@@ 71
quan@@ 70
syst@@ 70
decla@@ 70
fast@@ 70
alph@@ 70
cid@@ 69
aut@@ 69
through@@ 69
wid@@ 69
how 69
illary 69
wiki@@ 69
cide 68
appear@@ 68
chant 68
suicid@@ 68
eties 68
princi@@ 68
argum@@ 68
ulty 68
clint@@ 68
religi@@ 68
califor@@ 67
christi@@ 67
small@@ 67
sations 67
arities 66
polic@@ 66
petro@@ 66
hind@@ 66
chri@@ 66
democr@@ 65
grow@@ 65
embarr@@ 65
cheap@@ 65
tton 65
kem@@ 65
controversi@@ 65
amend@@ 64
bot@@ 64
cuto@@ 64
icient 64
pharmaceu@@ 64
obe 64
simi@@ 63
sche@@ 63
clud@@ 63
not 63
aying 62
sects 62
health@@ 62
bile 62
seme@@ 62
alled 62
wle@@ 61
onym@@ 61
venezu@@ 61
pgd@@ 61
efs 61
drin@@ 61
excell@@ 60
aipur 60
reson@@ 60
peop@@ 60
recomm@@ 59
logi@@ 59
wire@@ 59
appoint@@ 59
rif@@ 59
anos 59
israeli@@ 59
kru@@ 59
wered 58
alco@@ 58
secon@@ 58
ext 58
acti@@ 58
gressive 58
ules 58
raft 58
effici@@ 57
beau@@ 57
icid@@ 57
carol@@ 57
manufac@@ 57
ario 57
disci@@ 57
ymp@@ 56
weir@@ 56
bai 56
asion 56
tels 56
goti@@ 56
enh@@ 55
bum 55
kore@@ 55
concen@@ 55
ild 55
pyth@@ 55
famili@@ 55
proced@@ 55
ext@@ 55
stren@@ 54
make@@ 54
conspir@@ 54
scor@@ 53
desk@@ 53
guil@@ 53
hind 53
smart@@ 53
rests 53
inely 53
alu@@ 53
cle 53
cess 53
cessor 53
ril 52
kv@@ 52
atom@@ 52
vacu@@ 52
paci@@ 51
differen@@ 51
aires 51
seas 51
narcis@@ 51
licated 51
abu@@ 50
juni@@ 50
jour@@ 50
auti@@ 50
pizz@@ 50
nerv@@ 50
gaon 50
taneously 50
ween 49
emper@@ 49
control@@ 49
genu@@ 49
soc@@ 49
kia 49
elem@@ 49
ida 49
avy 49
uru 48
experi@@ 48
teen@@ 48
entr@@ 48
wering 47
theore@@ 47
opport@@ 47
democra@@ 47
dise@@ 47
patter@@ 46
perman@@ 46
eli 46
sapp 46
enge 46
krish@@ 46
universi@@ 45
lars 45
entertain@@ 45
dox 45
imple@@ 45
pn 45
ridi@@ 45
jose@@ 45
ount 45
responsi@@ 45
sylla@@ 44
qua@@ 44
ordan 44
simu@@ 44
eclip@@ 44
wwi@@ 44
calori@@ 44
gration 43
cate@@ 43
scienti@@ 43
republic@@ 43
bourne 43
delet@@ 42
random@@ 42
prepa@@ 42
reness 42
feasi@@ 41
eller 41
base@@ 41
desh 41
pedia 40
hoods 40
brew 40
sligh@@ 40
tay@@ 39
ffered 39
cloth@@ 39
alg@@ 39
maharash@@ 39
centr@@ 39
awk@@ 39
arrest@@ 38
awa@@ 38
promin@@ 38
lead@@ 38
xit 38
crete 38
agri@@ 38
calci@@ 37
inve@@ 37
tific@@ 37
agram 37
onaire 37
anatom@@ 37
scholar@@ 37
arma 36
alin 36
leum 36
nationally 36
eval 36
gious 35
aire 35
nei@@ 35
agend@@ 35
unes 35
partic@@ 35
datory 35
ition 34
assas@@ 34
decre@@ 34
beauti@@ 34
curricul@@ 34
intermedi@@ 34
movi@@ 34
opini@@ 34
sume 34
wei@@ 33
teria 33
ilities 32
politici@@ 32
dau@@ 32
vene@@ 32
border@@ 32
dule 32
begin@@ 32
stitu@@ 32
perfor@@ 31
anal@@ 31
transpl@@ 31
feed@@ 31
iel@@ 31
wis 30
ror 30
mathe@@ 30
absolu@@ 30
zuc@@ 30
ods 30
etes 30
hyder@@ 29
este@@ 29
specific@@ 29
terror@@ 29
witn@@ 29
portfo@@ 29
rhea 28
jup@@ 28
drome 28
viet 28
sterone 28
financi@@ 28
celer@@ 28
ught 28
remedi@@ 27
langu@@ 27
wro@@ 27
atically 27
minu@@ 27
eligi@@ 27
coffe@@ 27
spective 26
chall@@ 26
immi@@ 26
fore 26
gress 26
freel@@ 26
exac@@ 26
pover@@ 26
signific@@ 26
inste@@ 25
majo@@ 25
biome@@ 25
softw@@ 25
slow@@ 25
tomor@@ 25
torials 25
poll@@ 25
juana 25
mally 25
leav@@ 25
derly 24
kann@@ 24
afford@@ 24
micha@@ 24
telug@@ 24
ify 24
ularly 24
every@@ 24
raja@@ 24
victim@@ 23
bachel@@ 23
ncer@@ 23
member@@ 23
dney 23
pakist@@ 23
favouri@@ 23
decl@@ 23
lege 22
intellig@@ 22
aldo 22
amon@@ 22
anxi@@ 22
paralle@@ 22
strum@@ 21
elizab@@ 21
bedro@@ 21
nether@@ 21
hul 21
offic@@ 21
profess@@ 21
help@@ 20
fes@@ 20
oriz@@ 20
ttes 20
omag@@ 20
olf 20
recommend@@ 20
degre@@ 20
zab@@ 20
presid@@ 20
funni@@ 19
rajast@@ 19
cannab@@ 19
engag@@ 19
orly 19
commer@@ 19
hypothe@@ 19
toms 19
ont@@ 19
effor@@ 19
natur@@ 19
afra@@ 19
whel@@ 19
own@@ 19
setu@@ 19
musli@@ 19
citizen@@ 19
enem@@ 19
aji 18
acce@@ 18
toge@@ 18
furnit@@ 18
braz@@ 18
ecules 18
alore 17
accomp@@ 17
viet@@ 17
isra@@ 17
ziest 17
mics 17
vels 17
recor@@ 17
feel@@ 17
rendra 17
ire@@ 16
angana 16
alyp@@ 16
kyo 16
zucker@@ 16
shakespe@@ 16
autonom@@ 16
plom@@ 16
igan 16
nai 16
dical 16
anistan 16
vocab@@ 16
relation@@ 15
assemb@@ 15
basket@@ 15
interest@@ 15
discri@@ 15
reme@@ 14
chl@@ 14
percenti@@ 14
vehic@@ 14
speak@@ 14
ream 14
russi@@ 14
devel@@ 14
mahab@@ 14
esel 14
entrepre@@ 14
benefi@@ 14
kata 14
teenag@@ 14
iden@@ 13
uary 13
knowle@@ 13
hoo 13
episo@@ 13
windo@@ 13
aluru 13
thout 13
follow@@ 13
leep 12
diar@@ 12
hurri@@ 12
sanskri@@ 12
proper@@ 12
deau 11
ohi@@ 11
vidu@@ 11
ember 11
refri@@ 11
amoun@@ 11
gord@@ 11
fail@@ 11
osaur@@ 11
sugg@@ 11
bnb 11
linke@@ 10
when@@ 10
pse@@ 10
mista@@ 10
australi@@ 10
cocon@@ 10
ayur@@ 10
madri@@ 10
becom@@ 9
ocity 9
singap@@ 9
ghters 9
washin@@ 9
especi@@ 9
hundre@@ 9
diffic@@ 9
austra@@ 9
delo@@ 9
necess@@ 9
ulary 9
ird 9
bedded 9
chiat@@ 9
imum 9
mainst@@ 9
mainten@@ 8
octo@@ 8
figh@@ 8
ferred 8
astron@@ 8
osaurs 8
opher 8
fically 8
testo@@ 8
kej@@ 8
require@@ 8
hru 8
newsp@@ 8
blings 8
entum 8
charac@@ 8
pokem@@ 8
karnat@@ 8
ariz@@ 7
mandar@@ 7
easi@@ 7
caust 7
regar@@ 7
estab@@ 7
orith@@ 7
compon@@ 7
busin@@ 7
flix 7
actre@@ 7
miri 7
atedly 7
canadi@@ 6
aism 6
childh@@ 6
indon@@ 6
palest@@ 6
employe@@ 6
alumin@@ 6
childre@@ 6
alem 6
htt@@ 6
thern 6
manufactu@@ 5
coim@@ 5
portu@@ 5
gry 5
zerland 5
vietnam@@ 5
buntu 5
mex@@ 5
happe@@ 5
espe@@ 5
sudd@@ 5
ovo 5
puer@@ 5
celebri@@ 5
thap@@ 5
habad 5
helic@@ 4
ingre@@ 4
ethnic@@ 4
jerus@@ 4
foreig@@ 4
yester@@ 4
europe@@ 4
ophren@@ 4
oler@@ 4
pkart 4
claim@@ 4
sacrif@@ 3
them 3
javas@@ 3
kejri@@ 3
bangla@@ 3
restaur@@ 3
encou@@ 3
soldi@@ 3
portugu@@ 3
ahmed@@ 3
howe@@ 3
apoc@@ 3
irani@@ 3
cigare@@ 3
puber@@ 3
procedu@@ 3
comed@@ 2
mercur@@ 2
assium 2
symb@@ 2
afric@@ 2
barcel@@ 2
tect 2
adays 2
merce 2
thereum 2
professi@@ 2
citiz@@ 2
bassy 2
ggest 2
mexic@@ 2
molecu@@ 1
etooth 1
keley 1
entrepreneur@@ 1
strug@@ 1
coimbat@@ 1
deloit@@ 1
swol@@ 1
televi@@ 1
centure 1
palestini@@ 1
startu@@ 1
bhuban@@ 1
demort 1
